{
  "<s>": 0,
  "<pad>": 1,
  "</s>": 2,
  "<unk>": 3,
  ",": 4,
  ".": 5,
  "\u2581de": 6,
  "-": 7,
  "\u2581a": 8,
  ":": 9,
  "\u2581...": 10,
  "\u2581(": 11,
  "'": 12,
  "\u2581i": 13,
  "\u2581la": 14,
  "\u2581-": 15,
  "\u2581e": 16,
  ")": 17,
  "\u2019": 18,
  "\u2581en": 19,
  "\u2581sa": 20,
  "\u2581": 21,
  "\u2581\u043d\u0430": 22,
  "?": 23,
  "\u2581o": 24,
  "...": 25,
  "\u2581in": 26,
  "\u2581\u0438": 27,
  "!": 28,
  "\u2581d": 29,
  "\u2581se": 30,
  "\u2581\"": 31,
  "\u2581da": 32,
  "\u2581un": 33,
  "\u2581\u2013": 34,
  "\u2581l": 35,
  "\u2581di": 36,
  "in": 37,
  "\u2581\u201c": 38,
  "\u2581\u0432": 39,
  "ar": 40,
  "as": 41,
  "\u2581y": 42,
  "\u2581an": 43,
  "en": 44,
  "es": 45,
  "u": 46,
  "an": 47,
  "\u2581je": 48,
  "s": 49,
  "et": 50,
  "/": 51,
  "\u2581A": 52,
  "at": 53,
  "is": 54,
  "\u2581do": 55,
  "\u2581er": 56,
  "os": 57,
  "\"": 58,
  "\u2581ti": 59,
  "y": 60,
  "\u2581S": 61,
  "\u2581v": 62,
  "\u2581s": 63,
  "al": 64,
  "it": 65,
  "\u2581\u0437\u0430": 66,
  "er": 67,
  "n": 68,
  "\u2581el": 69,
  "\u2581u": 70,
  ";": 71,
  "us": 72,
  "on": 73,
  "o": 74,
  "\u2581le": 75,
  "\u2581\u2022": 76,
  "t": 77,
  "\u201d": 78,
  "a": 79,
  "el": 80,
  "\u2581B": 81,
  "\u2581\u00ab": 82,
  "ak": 83,
  "\u2581\u00b7": 84,
  "\u2581\u0434\u0430": 85,
  "\u2581L": 86,
  "am": 87,
  "\u2581M": 88,
  "i": 89,
  "\u2581T": 90,
  "\u2581del": 91,
  "\u2581D": 92,
  "k": 93,
  "ul": 94,
  "\u2581\u043d\u0435": 95,
  "em": 96,
  "un": 97,
  "il": 98,
  "h": 99,
  "\u2581\u0443": 100,
  "\u2581is": 101,
  "\u2581et": 102,
  "\u2581per": 103,
  "\u2581at": 104,
  "ir": 105,
  "na": 106,
  "te": 107,
  "\u2581al": 108,
  "m": 109,
  "ja": 110,
  "\u2581w": 111,
  "\u2581to": 112,
  "\u2581K": 113,
  "z": 114,
  "r": 115,
  "\u2581P": 116,
  "\u2581te": 117,
  "\u2581ar": 118,
  "\u2581C": 119,
  "\u2581n": 120,
  "\u2581no": 121,
  "im": 122,
  "\u2581V": 123,
  "ad": 124,
  "c": 125,
  "l": 126,
  "om": 127,
  "\u2581:": 128,
  "\u2581ang": 129,
  "ta": 130,
  "\u2581on": 131,
  "ing": 132,
  "ia": 133,
  "p": 134,
  "ne": 135,
  "f": 136,
  "\u2581G": 137,
  "\u2581N": 138,
  "g": 139,
  "\u25811": 140,
  "\u2581du": 141,
  "\u2581dan": 142,
  "b": 143,
  "ur": 144,
  "\u25812": 145,
  "um": 146,
  "ik": 147,
  "ti": 148,
  "\u2581m": 149,
  "d": 150,
  "\u2581\u0441\u0435": 151,
  "\u2581H": 152,
  "\u2581O": 153,
  "or": 154,
  "\u2581den": 155,
  "\u2581R": 156,
  "\u2581op": 157,
  "e": 158,
  "\u2581ne": 159,
  ").": 160,
  "j": 161,
  "v": 162,
  "id": 163,
  "\u2581for": 164,
  "\u2581van": 165,
  "\u2581til": 166,
  "ie": 167,
  "ka": 168,
  "ek": 169,
  "\u2581det": 170,
  "ni": 171,
  "ol": 172,
  "\u2581I": 173,
  "ana": 174,
  "\u25813": 175,
  "ut": 176,
  "ch": 177,
  "\u2581t": 178,
  "\u2581\u0441": 179,
  "\u2581F": 180,
  "re": 181,
  "\u2581E": 182,
  "ang": 183,
  "\u2581\u201e": 184,
  "ada": 185,
  "\u2581\u043f\u043e": 186,
  "),": 187,
  "ra": 188,
  "w": 189,
  "\u2581k": 190,
  "ok": 191,
  "ot": 192,
  "\u2581c": 193,
  "S": 194,
  "\u2581g": 195,
  "\u043d\u0430": 196,
  "da": 197,
  "\u2581h": 198,
  "de": 199,
  "\u2581b": 200,
  "la": 201,
  "ed": 202,
  "\u2581'": 203,
  "\u2581r": 204,
  "\u2581har": 205,
  "C": 206,
  "\u2581su": 207,
  "(": 208,
  "ci": 209,
  "\u00bb": 210,
  "\u2581con": 211,
  "wa": 212,
  "\u2581des": 213,
  "st": 214,
  "\u2581am": 215,
  "\u2581f": 216,
  "ina": 217,
  "\u25815": 218,
  "\u2581p": 219,
  "\u2581los": 220,
  "ny": 221,
  "\u0442": 222,
  "\u2581ta": 223,
  "le": 224,
  "\u2581ma": 225,
  "\u25814": 226,
  "\u2581ir": 227,
  "\u2581\u2018": 228,
  "x": 229,
  "are": 230,
  "\u2581lo": 231,
  "\u043b\u0430": 232,
  "\u2581por": 233,
  "se": 234,
  "\u2581as": 235,
  "\u2581und": 236,
  "\u043c": 237,
  "\u2581\u043e\u0442": 238,
  "M": 239,
  "\u2581W": 240,
  "ai": 241,
  "ay": 242,
  "\u2581\u0435": 243,
  "ig": 244,
  "\u2581J": 245,
  "B": 246,
  "li": 247,
  "\u258110": 248,
  "ov": 249,
  "ab": 250,
  "A": 251,
  "ah": 252,
  "ud": 253,
  "\u2581/": 254,
  "\u0442\u0438": 255,
  "\u2581wa": 256,
  "ag": 257,
  "\u043a\u0430": 258,
  "ha": 259,
  "\u2581Z": 260,
  "\u2581me": 261,
  "ere": 262,
  "\u2581pa": 263,
  "ele": 264,
  "est": 265,
  "\u0442\u0430": 266,
  "\u2581so": 267,
  "no": 268,
  "\u2581\u0430": 269,
  "P": 270,
  "D": 271,
  "ri": 272,
  "\u2581ha": 273,
  "\u2581po": 274,
  "\u043d\u0435": 275,
  "od": 276,
  "ant": 277,
  "ent": 278,
  "sa": 279,
  "2": 280,
  "\u0441": 281,
  "\u2581\u0434\u043e": 282,
  "\u2581La": 283,
  "\u2581\u0437": 284,
  "ung": 285,
  "ap": 286,
  "\u2581em": 287,
  "ata": 288,
  "\u2581man": 289,
  "\u2581U": 290,
  "ic": 291,
  "\u043b\u0438": 292,
  "\u2581\u2014": 293,
  "ya": 294,
  "K": 295,
  "ine": 296,
  "\u2581par": 297,
  "\u2581j": 298,
  "ist": 299,
  "\u043d\u0438": 300,
  "uk": 301,
  "T": 302,
  "ou": 303,
  "ke": 304,
  "ini": 305,
  "ale": 306,
  "\u0445": 307,
  "\u25816": 308,
  "\u2581att": 309,
  "q": 310,
  "\u043b": 311,
  "N": 312,
  "iz": 313,
  "ma": 314,
  "\u2581De": 315,
  "\u043a": 316,
  "\u2581var": 317,
  "\u2581Ang": 318,
  "ite": 319,
  "ers": 320,
  "ari": 321,
  "ens": 322,
  "L": 323,
  "\u043d\u043e": 324,
  "ate": 325,
  "\u0432\u0430": 326,
  "\u201c": 327,
  "ara": 328,
  "\u2581bir": 329,
  "lar": 330,
  "ce": 331,
  "eg": 332,
  "\u25812018": 333,
  "ile": 334,
  "\u2581men": 335,
  "\u044f": 336,
  "3": 337,
  "to": 338,
  "ko": 339,
  "\u2581of": 340,
  "H": 341,
  "6": 342,
  "ter": 343,
  "ki": 344,
  "za": 345,
  "ro": 346,
  "com": 347,
  "\u2581re": 348,
  "\u25817": 349,
  "\u2581met": 350,
  "\u2581com": 351,
  "ani": 352,
  "\u043c\u0430": 353,
  "\u0442\u0435": 354,
  "\u2581\u0432\u043e": 355,
  "1": 356,
  "di": 357,
  "ene": 358,
  "\u25818": 359,
  "\u0434": 360,
  "io": 361,
  "\u2581En": 362,
  "ten": 363,
  "\u2581din": 364,
  "4": 365,
  "ga": 366,
  "R": 367,
  "ve": 368,
  "og": 369,
  "I": 370,
  "ama": 371,
  "E": 372,
  "G": 373,
  "ac": 374,
  "op": 375,
  "era": 376,
  "ze": 377,
  "\u0432": 378,
  "me": 379,
  "ca": 380,
  "\u0435": 381,
  "\u2581Y": 382,
  "ho": 383,
  "end": 384,
  "ib": 385,
  "\u2581\u00bb": 386,
  "O": 387,
  "\u0434\u0430": 388,
  "and": 389,
  "\u2581bo": 390,
  "F": 391,
  "\u2581ke": 392,
  "\u2581\u043e": 393,
  "\u2581\u043f\u0440\u0438": 394,
  "ba": 395,
  "\u0440\u0430": 396,
  "\u043c\u0438": 397,
  "\u2581pe": 398,
  "\u2581che": 399,
  "tu": 400,
  "\u2581x": 401,
  "ez": 402,
  "V": 403,
  "\u2581go": 404,
  "\u043f": 405,
  "\u2581\u0410": 406,
  "\u0442\u043e": 407,
  "\u2581qu": 408,
  "\u258120": 409,
  "ili": 410,
  "\u2581\u0423": 411,
  "\u2581\u0438\u0437": 412,
  "\u2581ag": 413,
  "\u0448": 414,
  "\u0440": 415,
  "ato": 416,
  "iti": 417,
  "U": 418,
  "\u2581An": 419,
  "\u043b\u0435": 420,
  "\u2581El": 421,
  "he": 422,
  "\u2581st": 423,
  "\u0436": 424,
  "\u2581\u0442\u0430": 425,
  "ong": 426,
  "\u2581ch": 427,
  "ane": 428,
  "ge": 429,
  "\u2581im": 430,
  "eng": 431,
  "\u25819": 432,
  "\u2581\u0441\u0430": 433,
  "\u258112": 434,
  "ica": 435,
  "sk": 436,
  "\u2581\u043e\u0434": 437,
  "\u2581bu": 438,
  "\u043e": 439,
  "J": 440,
  "\u0433": 441,
  "W": 442,
  "\u2581In": 443,
  "\u258118": 444,
  "\u2581tu": 445,
  "we": 446,
  "\u2581tr": 447,
  "ena": 448,
  "\u258115": 449,
  "\u043a\u0438": 450,
  "\u2581ob": 451,
  "av": 452,
  "ano": 453,
  "hi": 454,
  "\u0443": 455,
  "ju": 456,
  "7": 457,
  "\u0439": 458,
  "up": 459,
  "iv": 460,
  "ub": 461,
  "\u2581son": 462,
  "\u2581\u0412": 463,
  "\u2581ab": 464,
  "\u2581ra": 465,
  "\u043d\u044b": 466,
  "ob": 467,
  "eni": 468,
  "\u0433\u0430": 469,
  "\u2581ca": 470,
  "\u044e": 471,
  "\u0442\u044b": 472,
  "eb": 473,
  "\u2581sp": 474,
  "\u2581\u0441\u043e": 475,
  "ning": 476,
  "\u2581ho": 477,
  "\u2581ce": 478,
  "\u2581yo": 479,
  "\u043b\u043e": 480,
  "\u2581sk": 481,
  "\u0440\u0438": 482,
  "\u2581be": 483,
  "\u2581non": 484,
  "ast": 485,
  "ver": 486,
  "\u2581Al": 487,
  "8": 488,
  "5": 489,
  "be": 490,
  "ert": 491,
  "\u2581\u0421": 492,
  "\u043d": 493,
  "\u2581!": 494,
  "ade": 495,
  "\u2581mar": 496,
  "\u043c\u0435": 497,
  "\u2581mo": 498,
  "\u0437": 499,
  "\u2581\u043f\u0430": 500,
  "eri": 501,
  "lo": 502,
  "\u2581ass": 503,
  "\u2581ad": 504,
  "\u2581by": 505,
  "\u043a\u0443": 506,
  "9": 507,
  "\u2581pre": 508,
  "\u2581ap": 509,
  "\u2581mat": 510,
  "ug": 511,
  "\u2581\u0434\u043b\u044f": 512,
  "\u2581\u043f\u0440\u043e": 513,
  "\u0442\u044c": 514,
  "\u258111": 515,
  "vi": 516,
  "ion": 517,
  "\u2581\u0447\u0442\u043e": 518,
  "eli": 519,
  "inn": 520,
  "Y": 521,
  "ell": 522,
  "ans": 523,
  "ye": 524,
  "\u0440\u0435": 525,
  "ien": 526,
  "\u2581No": 527,
  "\u2581Ar": 528,
  "\u258130": 529,
  "\u2581X": 530,
  "ru": 531,
  "ip": 532,
  "ete": 533,
  "\u2581\u0441\u0443": 534,
  "\u2581fan": 535,
  "ust": 536,
  "ec": 537,
  "\u2581pr": 538,
  "ise": 539,
  "ken": 540,
  "\u25811.": 541,
  "\u2581ter": 542,
  "ys": 543,
  "\u043a\u043e": 544,
  "ler": 545,
  "\u2581dem": 546,
  "int": 547,
  "\u0434\u0438": 548,
  "\u25812017": 549,
  "man": 550,
  "\u0434\u0435": 551,
  "\u2581ga": 552,
  "\u2581fi": 553,
  "yn": 554,
  "ier": 555,
  "ats": 556,
  "co": 557,
  "\u2581\u0432\u0438": 558,
  "ins": 559,
  "ura": 560,
  "\u201d,": 561,
  "\u2581Ch": 562,
  "\u2581\u0418": 563,
  "\u0434\u044b": 564,
  "lu": 565,
  "\u043d\u0443": 566,
  "\u2581\u041d\u0430": 567,
  "ola": 568,
  "\u0442\u0443": 569,
  "\u2581\u041e": 570,
  "\u25810": 571,
  "\u2581bi": 572,
  "\u0441\u0430": 573,
  "eta": 574,
  "\u0437\u0430": 575,
  "\".": 576,
  "\u258116": 577,
  "\u2581it": 578,
  "\u258114": 579,
  "\u2581Le": 580,
  "\u0440\u043e": 581,
  "uri": 582,
  "\u0432\u0438": 583,
  "che": 584,
  "\u2581Se": 585,
  "\u2581\u0432\u044b": 586,
  "\u2581min": 587,
  "\u0430": 588,
  "art": 589,
  "\",": 590,
  "pa": 591,
  "oc": 592,
  "....": 593,
  "\u258113": 594,
  "\u2581li": 595,
  "ost": 596,
  "\u2581\u0442\u043e": 597,
  "\u2581care": 598,
  "\u0447": 599,
  "\u2581pro": 600,
  "\u2581ac": 601,
  "\u0431": 602,
  "res": 603,
  "\u2581wat": 604,
  "ts": 605,
  "\u0432\u0435": 606,
  "pe": 607,
  "\u2581\u043d\u043e": 608,
  "\u2581\u044f": 609,
  "\u258117": 610,
  "\u043b\u044c": 611,
  "ino": 612,
  "all": 613,
  "\u2581mal": 614,
  "ker": 615,
  "\u043c\u043e": 616,
  "Z": 617,
  "ky": 618,
  "ora": 619,
  "du": 620,
  "\u2581co": 621,
  "\u0441\u0435": 622,
  "ind": 623,
  "\u2581Ma": 624,
  "ish": 625,
  "aren": 626,
  "\u2581jo": 627,
  "\u2581br": 628,
  "ill": 629,
  "\u2581sur": 630,
  "ice": 631,
  "\u0431\u0430": 632,
  "elt": 633,
  "\u2581Mar": 634,
  "\u25812.": 635,
  "ation": 636,
  "\u2581fra": 637,
  "\u0440\u0443": 638,
  "\u2581mer": 639,
  "ide": 640,
  "\u2581\u041f\u043e": 641,
  "\u0438": 642,
  "lik": 643,
  "\u258125": 644,
  "\u201d.": 645,
  "\u258124": 646,
  "\u2581St": 647,
  "\u043a\u0435": 648,
  "vo": 649,
  "\u2581*": 650,
  "ann": 651,
  "\u2581us": 652,
  "\u043c\u0443": 653,
  "://": 654,
  "pl": 655,
  "tr": 656,
  "den": 657,
  "\u2581&": 658,
  "\u2581gr": 659,
  "\u2581\u0441\u0438": 660,
  "der": 661,
  "\u2581ge": 662,
  "\u2581and": 663,
  "\u2581net": 664,
  "\u2581her": 665,
  "\u2581cho": 666,
  "any": 667,
  "\u0432\u043e": 668,
  "ore": 669,
  "\u2581bar": 670,
  "\u2581ro": 671,
  "\u2581amb": 672,
  "ett": 673,
  "ach": 674,
  "ase": 675,
  "ard": 676,
  "\u2581eng": 677,
  "\u2581Per": 678,
  "\u0441\u0442\u0430": 679,
  "AN": 680,
  "ante": 681,
  "iri": 682,
  "\u0447\u0438": 683,
  "\u2581\u0417\u0430": 684,
  "\u2581th": 685,
  "mo": 686,
  "ran": 687,
  "one": 688,
  "\u2581fir": 689,
  "qu": 690,
  "\u0434\u0443": 691,
  "\u2581sal": 692,
  "ire": 693,
  "\u2581\u0438\u043b\u0438": 694,
  "ep": 695,
  "\u2581over": 696,
  "ks": 697,
  "\u2581fa": 698,
  "men": 699,
  "\u0433\u043e": 700,
  "fi": 701,
  "\u0441\u0442": 702,
  "\u2581pri": 703,
  "\u2581sh": 704,
  "\u0440\u044b": 705,
  "\u2581\u0433\u043e": 706,
  "\u2581Un": 707,
  "ons": 708,
  "\u2581Sa": 709,
  "isk": 710,
  "het": 711,
  "\u2581Am": 712,
  "\u2581pl": 713,
  "\u043d\u0438\u0439": 714,
  "\u0447\u0430": 715,
  "\u2581mag": 716,
  "if": 717,
  "\u0434\u043e": 718,
  "\u0441\u044b": 719,
  "\u2581\u043a": 720,
  "ame": 721,
  "\u0441\u0442\u0438": 722,
  ".\u201d": 723,
  "\u0448\u0435": 724,
  "ff": 725,
  "gi": 726,
  "\u2581\u0440\u0430\u0437": 727,
  "\u043b\u044b": 728,
  "\u0446": 729,
  "use": 730,
  "\u25812016": 731,
  "\u2581qui": 732,
  "pr": 733,
  "\u2581\u0448\u0442\u043e": 734,
  "\u2581the": 735,
  "\u2581ur": 736,
  "\u2581val": 737,
  "ym": 738,
  "\u2581Si": 739,
  ".,": 740,
  "X": 741,
  "han": 742,
  "per": 743,
  "\u2581)": 744,
  "cha": 745,
  "\u2581\u043c\u0430": 746,
  "\u2581air": 747,
  "\u2581all": 748,
  "\u0421": 749,
  "mer": 750,
  "\u0433\u0435": 751,
  "gen": 752,
  "ese": 753,
  "aran": 754,
  "\u2581sus": 755,
  "bo": 756,
  "\u2581100": 757,
  "\u2581or": 758,
  "\u0448\u0430": 759,
  "\u0437\u0438": 760,
  "ow": 761,
  "\u258150": 762,
  "\u0441\u0438": 763,
  "\u258121": 764,
  "\u25813.": 765,
  "\u043d\u044b\u0445": 766,
  "\u2581une": 767,
  "%": 768,
  "\u2581\u201d": 769,
  "\u043d\u0438\u0442\u0435": 770,
  "\u2581tur": 771,
  "yt": 772,
  "ger": 773,
  "\u2581pol": 774,
  "\u043d\u043e\u0433\u043e": 775,
  "\u0431\u0438": 776,
  "\u2581he": 777,
  "\u2581Pr": 778,
  "\u043b\u0443": 779,
  "pi": 780,
  "\u2581Q": 781,
  "que": 782,
  "\u2581war": 783,
  "th": 784,
  "\u043d\u0438\u044f": 785,
  "ry": 786,
  "\u2581\u043f\u0440\u0435": 787,
  "\u2581ind": 788,
  "\u043b\u044f": 789,
  "ole": 790,
  "\u2581lan": 791,
  "ime": 792,
  "\u2581Re": 793,
  "\u2581Bu": 794,
  "\u258119": 795,
  "\u0441\u043a\u0438": 796,
  "zy": 797,
  "\u0445\u0430": 798,
  "lan": 799,
  "\u258122": 800,
  "10": 801,
  "nu": 802,
  "alt": 803,
  "its": 804,
  "00": 805,
  "hl": 806,
  "\u2581tra": 807,
  "org": 808,
  "\u0447\u0435": 809,
  "\u043d\u0430\u0442\u0430": 810,
  "\u2581Ti": 811,
  "\u2581dis": 812,
  "\u25812015": 813,
  "br": 814,
  "\u043f\u0430": 815,
  "ond": 816,
  "\u2581+": 817,
  "+": 818,
  "\u0441\u043a\u0430": 819,
  "\u2581\u043a\u0430": 820,
  "\u0446\u0438": 821,
  "ern": 822,
  "ess": 823,
  "do": 824,
  "ER": 825,
  "\u043f\u043e": 826,
  "po": 827,
  "ico": 828,
  "ev": 829,
  "ven": 830,
  "ft": 831,
  "\u258123": 832,
  "AR": 833,
  "ande": 834,
  "els": 835,
  "enn": 836,
  "so": 837,
  "\u2581sig": 838,
  "bu": 839,
  "\u2581Tr": 840,
  "une": 841,
  "\u2581fr": 842,
  "af": 843,
  "ber": 844,
  "\u043d\u0438\u0445": 845,
  "ue": 846,
  "\u2581hat": 847,
  "\u2581\u0433": 848,
  "\u2581pat": 849,
  "\u2581\u043a\u043e": 850,
  "\u2581\u043a\u0430\u043a": 851,
  "\u2581To": 852,
  "\u2581Di": 853,
  "ras": 854,
  "\u0410": 855,
  "ings": 856,
  "ero": 857,
  "val": 858,
  "\u2581\u041a": 859,
  "\u2581\u0442\u0435": 860,
  "\u2581Ab": 861,
  "30": 862,
  "\u2581ed": 863,
  "\u2581Sh": 864,
  "ament": 865,
  "\u2581\u043f\u043e\u0434": 866,
  "amb": 867,
  "fr": 868,
  "rat": 869,
  "\u2581was": 870,
  "yd": 871,
  "ck": 872,
  "ink": 873,
  "EN": 874,
  "\u2581mis": 875,
  "und": 876,
  "sh": 877,
  "\u0441\u0443": 878,
  "ike": 879,
  "\u0435\u0442": 880,
  "\u2581nam": 881,
  "\u2581\u0431\u0430": 882,
  "\u2581\u0414": 883,
  "\u2581lu": 884,
  "\u2581As": 885,
  "\u2581\u043c\u043e": 886,
  "\u2581Es": 887,
  "Q": 888,
  "\u2581Sp": 889,
  "\u0446\u0435": 890,
  "ass": 891,
  "\u2581dr": 892,
  "\u2581Par": 893,
  "kl": 894,
  "ste": 895,
  "\u25814.": 896,
  "go": 897,
  "tor": 898,
  "wan": 899,
  "\u0436\u0430": 900,
  "iss": 901,
  "\u2581\u0431\u0438": 902,
  "ets": 903,
  "\u2581\u0415": 904,
  "\u2581pot": 905,
  "\u041a": 906,
  "AL": 907,
  "20": 908,
  "min": 909,
  "oma": 910,
  "ales": 911,
  "att": 912,
  "\u2581pos": 913,
  "AT": 914,
  "\u2581Ne": 915,
  "ash": 916,
  "\u00bb.": 917,
  "\u2581\u043c\u0438": 918,
  "ord": 919,
  "\u25812014": 920,
  "\u2581\u0434\u0435": 921,
  "\u2581\u00b0": 922,
  "fe": 923,
  "\u0436\u0435": 924,
  "\u0433\u0443": 925,
  "\u0436\u0438": 926,
  "oo": 927,
  "\u2581The": 928,
  "\u0446\u0430": 929,
  "\u2581ben": 930,
  "\u2581entre": 931,
  "\u2581\u0447\u0435": 932,
  "by": 933,
  "amp": 934,
  "net": 935,
  "ella": 936,
  "\u2581Sch": 937,
  "ret": 938,
  "sta": 939,
  "ket": 940,
  "sp": 941,
  "\u2581Br": 942,
  "\u00bb,": 943,
  "\u258140": 944,
  "als": 945,
  "\u2581tre": 946,
  "\u2581\u0417": 947,
  "\u0446\u0438\u044f": 948,
  "les": 949,
  "\u2581Da": 950,
  "ES": 951,
  "ule": 952,
  "\u2581tar": 953,
  "\u2581we": 954,
  ".)": 955,
  "\u2581\u0411": 956,
  "ement": 957,
  "\u041c": 958,
  "uc": 959,
  "\u2581Pro": 960,
  "\u043c\u0435\u043d": 961,
  "\u2581\u0440\u0435": 962,
  "\u2581>": 963,
  "age": 964,
  "ake": 965,
  "\u0444": 966,
  "\u2581pal": 967,
  "gr": 968,
  "\u2581\u0440\u0430": 969,
  "\u2581ten": 970,
  "\u2581\u0441\u0442\u0430": 971,
  "\u2581dig": 972,
  "\u2581Az": 973,
  "van": 974,
  "\u2581\u043e\u0431": 975,
  "&": 976,
  "\u2581mon": 977,
  "itt": 978,
  "vis": 979,
  "\u2581far": 980,
  "itat": 981,
  "red": 982,
  "\u2581\u043b\u0438": 983,
  "\u2581pen": 984,
  "\u2581Ad": 985,
  "ott": 986,
  "enta": 987,
  "eme": 988,
  "\u2581online": 989,
  "\u2581\u0422": 990,
  "ars": 991,
  "\u043f\u0438": 992,
  "uar": 993,
  "`": 994,
  "ure": 995,
  "gu": 996,
  "\u2581Be": 997,
  "\u2581sch": 998,
  "\u0431\u0435": 999,
  "oz": 1000,
  "ith": 1001,
  "\u2581\u043f\u0440\u0430": 1002,
  "par": 1003,
  "\u2581Lo": 1004,
  "2.": 1005,
  "\u2581car": 1006,
  "ren": 1007,
  "\u258126": 1008,
  "\u044b": 1009,
  "ava": 1010,
  "\u2581Me": 1011,
  "\u2581col": 1012,
  "ht": 1013,
  "\u258128": 1014,
  "\u2581\u041d\u0435": 1015,
  "ee": 1016,
  "\u2581plus": 1017,
  "AS": 1018,
  "\u2581\u043f\u0435\u0440\u0435": 1019,
  "urs": 1020,
  "\u0422": 1021,
  "aks": 1022,
  "IN": 1023,
  "\u2581gen": 1024,
  "let": 1025,
  "\u25812013": 1026,
  "\u2581Com": 1027,
  "ude": 1028,
  "\u2581pay": 1029,
  "\u2581pan": 1030,
  ".\"": 1031,
  "for": 1032,
  "nd": 1033,
  "bl": 1034,
  "\u2581pred": 1035,
  "\u0433\u0438": 1036,
  "\u0442\u044c\u0441\u044f": 1037,
  "\u2581ex": 1038,
  "\u2581post": 1039,
  "\u2581\u043d\u0438": 1040,
  "\u2581Th": 1041,
  "lig": 1042,
  "\u0431\u0443": 1043,
  "\u2013": 1044,
  "19": 1045,
  "edi": 1046,
  "\u2581Po": 1047,
  "\u2581;": 1048,
  "\u2581web": 1049,
  "\u2581\u0413": 1050,
  "\u2581my": 1051,
  "met": 1052,
  "\u0431\u043e": 1053,
  "\u258127": 1054,
  "\u2581may": 1055,
  "\u0441\u043e": 1056,
  "\u2581vol": 1057,
  "\u0448\u0438": 1058,
  "emb": 1059,
  "\u2581leg": 1060,
  "chi": 1061,
  "50": 1062,
  "\u2581sex": 1063,
  "\u2581Te": 1064,
  "ator": 1065,
  "\u2581Man": 1066,
  "ros": 1067,
  "\u2581:)": 1068,
  "\u2581Is": 1069,
  "\u2581gu": 1070,
  "12": 1071,
  "\u2581Bar": 1072,
  "ors": 1073,
  "\u043d\u044b\u0435": 1074,
  "\u0414": 1075,
  "\u2581\u044d\u0442\u043e": 1076,
  "\u2581sou": 1077,
  "0": 1078,
  "\u2581fin": 1079,
  "1.": 1080,
  "\u2581sm": 1081,
  "\u2581sol": 1082,
  "\u043b\u0430\u0440": 1083,
  "\u0441\u0442\u0432\u0430": 1084,
  "\u0441\u0442\u0432\u043e": 1085,
  "IT": 1086,
  "\u2581bl": 1087,
  "alis": 1088,
  "\u2581Qu": 1089,
  "ss": 1090,
  "fer": 1091,
  "EL": 1092,
  "\u043d\u0438\u0435": 1093,
  "\u2581\u042f": 1094,
  "\u2581Ba": 1095,
  "\u2581tal": 1096,
  "\u2581\u0442\u0430\u043a": 1097,
  "\u2581sl": 1098,
  "IS": 1099,
  "yl": 1100,
  "\u2581mod": 1101,
  "\u2581sel": 1102,
  "\u2581Gr": 1103,
  "ner": 1104,
  "\u2581bes": 1105,
  "\u2581str": 1106,
  "iny": 1107,
  "\u2581\u041c\u0430": 1108,
  "\u2581bal": 1109,
  "\u25812012": 1110,
  "\u041e": 1111,
  "\u2581\u0442": 1112,
  "\u0441\u044f": 1113,
  "-1": 1114,
  "\u2581sta": 1115,
  "\u043d\u044f": 1116,
  "\u2581\u041c": 1117,
  "\u2581bas": 1118,
  "ort": 1119,
  "tir": 1120,
  "\u0411": 1121,
  "\u0432\u0443": 1122,
  "\u043c\u044b": 1123,
  "\u2581film": 1124,
  "\u0446\u0438\u0438": 1125,
  "\u2581program": 1126,
  "\u25815.": 1127,
  "\u2581res": 1128,
  "\u2581\u043d\u044c": 1129,
  "\u0442\u0430\u0440": 1130,
  "unk": 1131,
  "OS": 1132,
  "\u2581\u0432\u0435": 1133,
  "tim": 1134,
  "eh": 1135,
  "15": 1136,
  "\u2581\u0432\u0441\u0435": 1137,
  "\u2581For": 1138,
  "\u2581\u0449\u0435": 1139,
  "\u2581Ber": 1140,
  "\u2581form": 1141,
  "\u2581\u041a\u043e": 1142,
  "usta": 1143,
  "\u2581vis": 1144,
  "\u2581Dr": 1145,
  "\u2581cha": 1146,
  "\u043b\u0435\u043d": 1147,
  "\u0435\u043c": 1148,
  "3.": 1149,
  "\u0423": 1150,
  "\u2581ent": 1151,
  "\u2581sc": 1152,
  "\u2581plan": 1153,
  "\u0430\u0440": 1154,
  "\u0441\u0442\u043e": 1155,
  "ly": 1156,
  "\u2581\u0160": 1157,
  "\u2581\u041f": 1158,
  "ades": 1159,
  "\u2581blog": 1160,
  "\u2581\u0431\u043e": 1161,
  "ald": 1162,
  "ath": 1163,
  "aw": 1164,
  "\u2581ban": 1165,
  "\u043d\u043e\u0439": 1166,
  "jet": 1167,
  "ll": 1168,
  "\u2581\u0431\u0435\u0437": 1169,
  "11": 1170,
  "\u2581reg": 1171,
  "\u2581At": 1172,
  "\u25812011": 1173,
  "\u041f": 1174,
  "\u2581Der": 1175,
  "\u0412": 1176,
  "\u0301": 1177,
  "\u044d": 1178,
  "ph": 1179,
  "\u2581mil": 1180,
  "\u2581Facebook": 1181,
  "\u2581Con": 1182,
  "\u258129": 1183,
  "40": 1184,
  "\u2581\u0425": 1185,
  "\u2581So": 1186,
  "unt": 1187,
  "eld": 1188,
  "ps": 1189,
  "ity": 1190,
  "\u2581rec": 1191,
  "\u2014": 1192,
  "\u2581under": 1193,
  "land": 1194,
  "of": 1195,
  "\u2581Her": 1196,
  "enti": 1197,
  "mat": 1198,
  "pp": 1199,
  "\u258160": 1200,
  "reg": 1201,
  "\u2581\u043c\u043e\u0436\u0435": 1202,
  "\u25812010": 1203,
  "len": 1204,
  "\u2581Mi": 1205,
  "vel": 1206,
  "\u043d\u044b\u043c": 1207,
  "\u2581ins": 1208,
  "ose": 1209,
  "5.": 1210,
  "\u2581Har": 1211,
  "adu": 1212,
  "ores": 1213,
  "\u2581Ter": 1214,
  "rit": 1215,
  "\u2581ph": 1216,
  "\u2581Mas": 1217,
  "\u2581Pa": 1218,
  "wy": 1219,
  "ult": 1220,
  "\u2581\u041f\u0440\u0438": 1221,
  "tion": 1222,
  "\u2581San": 1223,
  "\u2581sing": 1224,
  "\u0430\u043d": 1225,
  "hat": 1226,
  "ume": 1227,
  "\u2581ty": 1228,
  "\u2581Em": 1229,
  "\u044b\u043d": 1230,
  "ux": 1231,
  "\u2581let": 1232,
  "\u2581Sk": 1233,
  "\u043d\u0438\u043a": 1234,
  "\u0432\u044b": 1235,
  "\u043d\u044b\u0439": 1236,
  "mar": 1237,
  "\u0445\u043e": 1238,
  "4.": 1239,
  "cer": 1240,
  "\u2581Bo": 1241,
  "\u25811,": 1242,
  "\u0413": 1243,
  "\u2581200": 1244,
  "OR": 1245,
  "oro": 1246,
  "\u2581www": 1247,
  "ET": 1248,
  "\u0442\u0430\u0439": 1249,
  "ster": 1250,
  "\u2581pun": 1251,
  "18": 1252,
  "\u0420": 1253,
  "oll": 1254,
  "\u2581Op": 1255,
  "\u043d\u043e\u043c": 1256,
  "\u2581tro": 1257,
  "\u0437\u043d\u0430": 1258,
  "\u2581bor": 1259,
  "\u2581\u0442\u0438": 1260,
  "\u2581Car": 1261,
  "\u2581Im": 1262,
  "ony": 1263,
  "\u2581\u041a\u0430": 1264,
  "\u2581\u043b\u0430": 1265,
  "25": 1266,
  "\u2581%": 1267,
  "pt": 1268,
  "\u2581\u0441\u0430\u043c\u043e": 1269,
  "IA": 1270,
  "\u2581\u0436\u0435": 1271,
  "\u25816.": 1272,
  "tic": 1273,
  "\u2581Pre": 1274,
  "igh": 1275,
  "\u043d\u0430\u044f": 1276,
  "\u2581cre": 1277,
  "\u2581video": 1278,
  "AD": 1279,
  "\u2581don": 1280,
  "\u2581(1": 1281,
  "\u2581Co": 1282,
  "AM": 1283,
  "ants": 1284,
  "\u0437\u0443": 1285,
  "\u2581vers": 1286,
  "\u2581\u043c\u0435": 1287,
  "\u0441\u043a\u043e": 1288,
  "\u2581Mo": 1289,
  "\u2581pra": 1290,
  "\u2581ste": 1291,
  "\u2581inter": 1292,
  "ams": 1293,
  "\u2581mus": 1294,
  "ON": 1295,
  "\u041b": 1296,
  "\u043a\u043e\u0432": 1297,
  "\u2581He": 1298,
  "\u043d\u0438\u043c": 1299,
  "\u2581cap": 1300,
  "\u044e\u0442": 1301,
  "\u0435\u043d": 1302,
  "\u2581Or": 1303,
  "mm": 1304,
  "US": 1305,
  "\u2581\u0414\u043e": 1306,
  "war": 1307,
  "\u2581mem": 1308,
  "\u2581\u0430\u0434": 1309,
  "lat": 1310,
  "\u2581\u041d\u043e": 1311,
  "\u2581http": 1312,
  "\u2581\u0437\u043d\u0430": 1313,
  "\u0434\u0430\u043d": 1314,
  "\u2581\u0434": 1315,
  "\u2581\u044d": 1316,
  "\u2581\u0446\u0435": 1317,
  "ment": 1318,
  "\u2581sil": 1319,
  "):": 1320,
  "\u0431\u044b": 1321,
  "\u2581sub": 1322,
  "\u043f\u0435": 1323,
  "7.": 1324,
  "*": 1325,
  "ater": 1326,
  "60": 1327,
  "isten": 1328,
  "\u2581internet": 1329,
  "\u2581via": 1330,
  "\u25812009": 1331,
  "\u2581\u0421\u0430": 1332,
  "\u2581\u0433\u0438": 1333,
  "www": 1334,
  "6.": 1335,
  "orn": 1336,
  "\u2581fe": 1337,
  "\u2581sup": 1338,
  "\u2581pres": 1339,
  "\u0442\u0435\u0440": 1340,
  "\u2581Su": 1341,
  "\u2581\u043c\u0443": 1342,
  "\u2581fl": 1343,
  "\u2581\u0414\u0430": 1344,
  "\u2581data": 1345,
  "ces": 1346,
  "13": 1347,
  "\u2581\u0422\u0430": 1348,
  "ilor": 1349,
  "\u0415": 1350,
  "9.": 1351,
  "arr": 1352,
  "\u0434\u0430\u0440": 1353,
  "ette": 1354,
  "\u2581up": 1355,
  "\u2581\u0438\u0445": 1356,
  "\u0445\u0438": 1357,
  "\u2581\u0433\u0430": 1358,
  "24": 1359,
  "\u2581\u0440\u043e": 1360,
  "\u0435\u0440": 1361,
  "2,": 1362,
  "car": 1363,
  "ns": 1364,
  "\u2581\u0432\u0430": 1365,
  "olog": 1366,
  "17": 1367,
  "\u2581Ge": 1368,
  "16": 1369,
  "\u2581Do": 1370,
  "\u0441\u0430\u043d": 1371,
  "\u0418": 1372,
  "14": 1373,
  "ull": 1374,
  "\u2581Fr": 1375,
  "\u2581\u043c": 1376,
  "\u2581Google": 1377,
  "1,": 1378,
  "\u2581Li": 1379,
  "\u2581\u0411\u0430": 1380,
  "\u2581\u043d\u0430\u0441": 1381,
  "irt": 1382,
  "\u2581best": 1383,
  "\u2581(19": 1384,
  "\u0437\u0435": 1385,
  "\u2581cal": 1386,
  "ums": 1387,
  "anti": 1388,
  "\u2581500": 1389,
  "\u0441\u044c": 1390,
  "\u2581\u0431": 1391,
  "\u0425": 1392,
  "\u043d\u0430\u043d": 1393,
  "\u2581Mal": 1394,
  "000": 1395,
  "\u0437\u043e": 1396,
  "\u2581\u0412\u0438": 1397,
  "tiv": 1398,
  "\u0440\u0435\u043d": 1399,
  "\u2581tas": 1400,
  "hen": 1401,
  "80": 1402,
  "\u2581end": 1403,
  "\u0442\u0430\u043d": 1404,
  "ex": 1405,
  "\u0440\u043e\u0432": 1406,
  "\u2581can": 1407,
  "\u2581II": 1408,
  "\u2581site": 1409,
  "\u2581bin": 1410,
  "\u2581\u0439": 1411,
  "\u2581Go": 1412,
  "\u2581deposit": 1413,
  "ix": 1414,
  "\u2581\u043e\u043d": 1415,
  "\u2581On": 1416,
  "\u2581\u0441\u044a": 1417,
  "uss": 1418,
  "pro": 1419,
  "\u0417": 1420,
  "\u2581\u0424": 1421,
  "\u2581\u0445": 1422,
  "\u2581gl": 1423,
  "por": 1424,
  "\u25817.": 1425,
  "ome": 1426,
  "\u2581Med": 1427,
  "8.": 1428,
  "\u2581bel": 1429,
  "\u0430\u043b": 1430,
  "eth": 1431,
  "IL": 1432,
  "ode": 1433,
  "oy": 1434,
  "\u2581set": 1435,
  "\u043a\u043e\u043c": 1436,
  "90": 1437,
  "\u043d\u0434": 1438,
  "\u043b\u044e": 1439,
  "\u0432\u0430\u0442": 1440,
  "\u2581hor": 1441,
  "\u2581inc": 1442,
  "\u2581\u043d\u0430\u0439": 1443,
  "70": 1444,
  "\u2581\u0445\u0430": 1445,
  "\u043e\u0440": 1446,
  "\u00b0": 1447,
  "\u2581bra": 1448,
  "\u0447\u0443": 1449,
  "\u2581pla": 1450,
  "\u2581\u041f\u0430": 1451,
  "wer": 1452,
  "\u2581TV": 1453,
  "AB": 1454,
  "\u2581\u041f\u0440\u043e": 1455,
  "ive": 1456,
  "\u044f\u0442": 1457,
  "\u0442\u043e\u0432": 1458,
  "\u2581Ag": 1459,
  "TA": 1460,
  "\u2581\u0412\u043e": 1461,
  "\u25812008": 1462,
  "ove": 1463,
  "mes": 1464,
  "\u2581super": 1465,
  "\u2581Mat": 1466,
  "\u044c": 1467,
  "\u043d\u043e\u0432": 1468,
  "\u2581\u043f": 1469,
  "\u2581\u0434\u0438": 1470,
  "\u2581Dan": 1471,
  "\u2581News": 1472,
  "aten": 1473,
  "\u0447\u043d\u043e": 1474,
  "\u258180": 1475,
  "ary": 1476,
  "ush": 1477,
  "\u2581Pe": 1478,
  "\u0441\u043a": 1479,
  "\u2581vill": 1480,
  "ED": 1481,
  "\u2581hy": 1482,
  ",\u201d": 1483,
  "\u2581Av": 1484,
  "\u2581\u0421\u043e": 1485,
  "\u043d\u043d\u044f": 1486,
  "\u2581person": 1487,
  "\u0432\u0430\u043d\u0435": 1488,
  "con": 1489,
  "able": 1490,
  "\u0435\u0442\u0441\u044f": 1491,
  "our": 1492,
  "\u258135": 1493,
  "\u2581\u0431\u0435": 1494,
  "\u2581\u0442\u0443": 1495,
  "\u0449\u0430": 1496,
  "\u0440\u0430\u043d": 1497,
  "\u2581All": 1498,
  "esc": 1499,
  ">": 1500,
  "\u2581tom": 1501,
  "\u2581\u041c\u0438": 1502,
  "\u041d": 1503,
  "\u2581\u0448": 1504,
  "ron": 1505,
  "ey": 1506,
  "\u25818.": 1507,
  "\u2581tri": 1508,
  "\u2581Min": 1509,
  "\u043a\u0430\u0442\u0430": 1510,
  "\u0437\u044b": 1511,
  "gy": 1512,
  "\u0441\u0442\u0435": 1513,
  "\u2581\u041d": 1514,
  "ents": 1515,
  "itan": 1516,
  "\u0451": 1517,
  "ID": 1518,
  "\u2581aut": 1519,
  "\u0432\u0430\u0442\u0438": 1520,
  "3,": 1521,
  "ges": 1522,
  "\u2581\u043f\u0435": 1523,
  "\u2581\u043b\u0435": 1524,
  "\u043f\u0443": 1525,
  "IC": 1526,
  "fin": 1527,
  "amm": 1528,
  "\u258131": 1529,
  "\u2581Bi": 1530,
  "\u2581Dar": 1531,
  "-2": 1532,
  "\u2581ev": 1533,
  "\u2581\u043c\u0435\u043d": 1534,
  "\u0440\u044f": 1535,
  "\u2581Mon": 1536,
  "lin": 1537,
  "\u2581ris": 1538,
  "\u2581fil": 1539,
  "\u2581cor": 1540,
  "ave": 1541,
  "ines": 1542,
  "ular": 1543,
  "\u2581\u0428": 1544,
  "\u2581Jo": 1545,
  "her": 1546,
  "rac": 1547,
  "\u2581Ke": 1548,
  "\u2581000": 1549,
  "uth": 1550,
  "\u2581\u043c\u044b": 1551,
  "get": 1552,
  "\u2581\u0431\u044b": 1553,
  "\u043b\u0435\u043a": 1554,
  "\u043d\u043e\u0441\u0442": 1555,
  "\u2581Pol": 1556,
  "\u2581beg": 1557,
  "\u2581\u043c\u043d\u043e\u0433\u043e": 1558,
  "\u2581\u043f\u0440\u0435\u0434": 1559,
  "IM": 1560,
  "EM": 1561,
  "\u2581come": 1562,
  "\u043e\u043d": 1563,
  "\u0446\u044b": 1564,
  "\u043b\u0430\u043d": 1565,
  "mail": 1566,
  "\u2581\u043a\u0430\u0442\u043e": 1567,
  "\u2581esc": 1568,
  "ations": 1569,
  "abil": 1570,
  "\u2581\u043a\u0443": 1571,
  "cher": 1572,
  "\u2581\u0420\u0430": 1573,
  "\u2581\u0436\u0430": 1574,
  "\u2581New": 1575,
  "\u0442\u0435\u043d": 1576,
  "\u258170": 1577,
  "\u2581PR": 1578,
  "ider": 1579,
  "ils": 1580,
  "inc": 1581,
  "\u043d\u0438\u043a\u0430": 1582,
  "nis": 1583,
  "\u2581mid": 1584,
  "iler": 1585,
  "\u2581pap": 1586,
  "\u0434\u0435\u043d": 1587,
  "\u2581Tur": 1588,
  "\u2581\u042d": 1589,
  "\u2581door": 1590,
  "\u2581cont": 1591,
  "\u2581uns": 1592,
  "ace": 1593,
  "pos": 1594,
  "\u2581\u0435\u0433\u043e": 1595,
  "\u2581Ca": 1596,
  "\u0430\u0442": 1597,
  "\u2581\u0445\u043e": 1598,
  "\u2581nar": 1599,
  "\u00e2": 1600,
  "\u2581ven": 1601,
  "45": 1602,
  "\u044a": 1603,
  "\u0441\u043d\u043e": 1604,
  "\u0442\u043e\u0440": 1605,
  "\u2581\u0440\u0443": 1606,
  "\u0441\u0442\u044c": 1607,
  "\u2581ret": 1608,
  "\u2581pad": 1609,
  "\u2581social": 1610,
  "\u2581ach": 1611,
  "nt": 1612,
  "\u044d\u043d": 1613,
  "ves": 1614,
  "\u2581Mag": 1615,
  "\u2581Gu": 1616,
  "\u0444\u0438": 1617,
  "erg": 1618,
  "\u2581\u0431\u0435\u0440": 1619,
  "ender": 1620,
  "\u043d\u043e\u0441\u0442\u0438": 1621,
  "\u2581\u043f\u0440\u044b": 1622,
  "\u2581\u041c\u043e": 1623,
  "IR": 1624,
  "\u2581bur": 1625,
  "ild": 1626,
  "\u2581Ra": 1627,
  "\u043d\u0438\u0438": 1628,
  "cy": 1629,
  "\u043e\u0442": 1630,
  "\u2581Ho": 1631,
  "\u2581pop": 1632,
  "\u2581And": 1633,
  "\u258145": 1634,
  "\u2581nur": 1635,
  "edd": 1636,
  "tur": 1637,
  "\u2581\u043f\u043b\u0430": 1638,
  "\u2581hand": 1639,
  "\u2581\u0447": 1640,
  "inger": 1641,
  "\u2581We": 1642,
  "\u0432\u0435\u043d": 1643,
  "\u2581hel": 1644,
  "\u2581\u0438\u043c": 1645,
  "\u2581int": 1646,
  "iner": 1647,
  "ely": 1648,
  "\u2581Bir": 1649,
  "\u0441\u043a\u0435": 1650,
  "\u2581\u0433\u043e\u0434\u0430": 1651,
  "\u2581port": 1652,
  "\u2581cr": 1653,
  "\u2581part": 1654,
  "\u2581Kas": 1655,
  "\u043f\u0440\u043e": 1656,
  "\u2581Ben": 1657,
  "\u2581\u043a\u0430\u043a\u043e": 1658,
  "\u2581It": 1659,
  "\u043d\u0443\u044e": 1660,
  "\u043c\u0430\u043d": 1661,
  "\u2581300": 1662,
  "ots": 1663,
  "AP": 1664,
  "fo": 1665,
  "\u258110.": 1666,
  "\u2581Bl": 1667,
  "ties": 1668,
  "\u2581sum": 1669,
  "\u0432\u0435\u0440": 1670,
  "4,": 1671,
  "ute": 1672,
  "\u2581\u043d\u0430\u0434": 1673,
  "atur": 1674,
  "ies": 1675,
  "\u2581cons": 1676,
  "OL": 1677,
  "\u258190": 1678,
  "pon": 1679,
  "\u0442\u043e\u043c": 1680,
  "\u2581\u0420": 1681,
  "\u2581Pl": 1682,
  "\u0436\u0443": 1683,
  "\u2581\u0442\u043e\u0432\u0430": 1684,
  "fl": 1685,
  "UM": 1686,
  "nic": 1687,
  "wal": 1688,
  "\u2581(3": 1689,
  "OM": 1690,
  "\u2581test": 1691,
  "ick": 1692,
  "99": 1693,
  "pet": 1694,
  "\u25812,": 1695,
  "ange": 1696,
  "\u2581lab": 1697,
  "\u2581are": 1698,
  "su": 1699,
  "\u0441\u0442\u044b": 1700,
  "dy": 1701,
  "\u2581Reg": 1702,
  "?\u201d": 1703,
  "\u25819.": 1704,
  "\u2581\u20ac": 1705,
  "ering": 1706,
  "\u2581tab": 1707,
  "\u2581\u0447\u0438": 1708,
  "unn": 1709,
  "\u043d\u0435\u043d": 1710,
  "2018": 1711,
  "\u2581Home": 1712,
  "\u2581\u0434\u0435\u043a\u0430": 1713,
  "\u2581sun": 1714,
  "\u2581imp": 1715,
  "23": 1716,
  "\u25813,": 1717,
  "UT": 1718,
  "\u0432\u0430\u043d": 1719,
  "\u2581did": 1720,
  "\u2581sit": 1721,
  "ham": 1722,
  "\u2581prim": 1723,
  "\u2581lik": 1724,
  "5,": 1725,
  "\u2581$": 1726,
  "\u0432\u0430\u043b\u0438": 1727,
  "8,": 1728,
  "\u2581\u0431\u043e\u043b": 1729,
  "UR": 1730,
  "\u2581inform": 1731,
  "\u0447\u043d\u0430": 1732,
  "\u2581div": 1733,
  "ct": 1734,
  "\u2581public": 1735,
  "\u2581Ph": 1736,
  "\u0448\u0443": 1737,
  "\u2581wel": 1738,
  "7,": 1739,
  "ty": 1740,
  "\u2581gra": 1741,
  "TE": 1742,
  "fs": 1743,
  "form": 1744,
  "\u2581Sam": 1745,
  "22": 1746,
  "\u0434\u043d\u043e": 1747,
  "\u2581dur": 1748,
  "-3": 1749,
  "\u2581\u043c\u043e\u0436\u043d\u043e": 1750,
  "\u25812019": 1751,
  "fic": 1752,
  "ling": 1753,
  "6,": 1754,
  "omo": 1755,
  "\u2581\u0422\u043e": 1756,
  "\u2581Ap": 1757,
  "\u2581Est": 1758,
  "EC": 1759,
  "\u2581Ex": 1760,
  "3)": 1761,
  "\u2581\u0436": 1762,
  "9,": 1763,
  "\u0442\u043d\u043e": 1764,
  "\u2581bul": 1765,
  "uch": 1766,
  "\u0432\u044f": 1767,
  "\u0442\u0441\u044f": 1768,
  "\u0440\u0442": 1769,
  "\u2581cur": 1770,
  "\u2581bed": 1771,
  "\u2581\u0441\u0432\u0435": 1772,
  "\u2581mobil": 1773,
  "sm": 1774,
  "\u0441\u0442\u0440\u0430": 1775,
  "\u2581\u043f\u0435\u0440": 1776,
  "\u2581Mer": 1777,
  "\u0442\u0435\u043b\u044c": 1778,
  "ics": 1779,
  "ellen": 1780,
  "\u2581word": 1781,
  "AG": 1782,
  "unta": 1783,
  "\u2581rel": 1784,
  "\u2581\u0414\u0435": 1785,
  "\u2581art": 1786,
  "26": 1787,
  "\u2581bag": 1788,
  "\u2581Ro": 1789,
  "\u2581Cor": 1790,
  "\u2581\u041b": 1791,
  "uts": 1792,
  "\u2581loc": 1793,
  "\u2581Internet": 1794,
  "\u2581pros": 1795,
  "\u2581\u0431\u0443": 1796,
  "\u2581\u0434\u0443": 1797,
  "\u2581tut": 1798,
  "\u2581log": 1799,
  "erv": 1800,
  "\u2581vari": 1801,
  "anc": 1802,
  "\u0447\u043a\u0438": 1803,
  "\u2581\u0430\u043a": 1804,
  "\u2581ren": 1805,
  "\u0433\u0440\u0430": 1806,
  "\u0431\u0440\u0430": 1807,
  "\u2581not": 1808,
  "\u0430\u0439": 1809,
  "iser": 1810,
  "berg": 1811,
  "\u043b\u0430\u0440\u044b": 1812,
  "\u2581\u0442\u043e\u043b\u044c\u043a\u043e": 1813,
  "ining": 1814,
  "\u2581Online": 1815,
  "\u2581land": 1816,
  "\u2581bod": 1817,
  "\u0440\u0438\u0442\u0435": 1818,
  "\u0432\u043d\u043e": 1819,
  "\u2581sn": 1820,
  "\u043d\u0430\u0439": 1821,
  "\u25812007": 1822,
  "\u044d\u043b": 1823,
  "can": 1824,
  "\u2581fo": 1825,
  "\u2581Col": 1826,
  "\u2581\u0436\u0438": 1827,
  "\u2581hon": 1828,
  ".0": 1829,
  "pre": 1830,
  "28": 1831,
  "uns": 1832,
  "\u2581ens": 1833,
  "ance": 1834,
  "umb": 1835,
  "\u2581pris": 1836,
  "\u2581\u043a\u043e\u043d": 1837,
  "\u0441\u043d\u0430": 1838,
  "\u2581problem": 1839,
  "\u258133": 1840,
  "\u2581IN": 1841,
  "\u2581pass": 1842,
  "\u0447\u0435\u043d": 1843,
  "ones": 1844,
  "\u2581final": 1845,
  "\u2581\u0431\u044b\u043b": 1846,
  "75": 1847,
  "\u2581gre": 1848,
  "\u0447\u043a\u0430": 1849,
  "\u2581\u0431\u0430\u0440": 1850,
  "fen": 1851,
  "\u2581say": 1852,
  "\u2581pers": 1853,
  "\u2581\u0420\u0435": 1854,
  "\u0424": 1855,
  "\u042f": 1856,
  "\u2581\u0431\u044b\u043b\u043e": 1857,
  "\u0435\u0432": 1858,
  "\u2581star": 1859,
  "\u2581\u0440\u043e\u0437": 1860,
  "\u2581bud": 1861,
  "\u2581Pod": 1862,
  "\u0440\u043e\u043c": 1863,
  "35": 1864,
  "vers": 1865,
  "\u2581inf": 1866,
  "\u2581dra": 1867,
  "27": 1868,
  "\u2581tim": 1869,
  "uste": 1870,
  "\u2581\u0447\u0430": 1871,
  "\u2581prom": 1872,
  "\u2581mp": 1873,
  "RA": 1874,
  "oss": 1875,
  "\u2581\u043a\u0438": 1876,
  "\u043b\u043e\u0432": 1877,
  "\u2581fac": 1878,
  "1)": 1879,
  "\u2581\u0426": 1880,
  "\u2581\u0416": 1881,
  "\u2581lat": 1882,
  "arn": 1883,
  "\u2581\u0411\u043e": 1884,
  "\u2581\u0441\u043f\u043e": 1885,
  "AC": 1886,
  "tia": 1887,
  "hol": 1888,
  "\u2581Hotel": 1889,
  "\u2581Pri": 1890,
  "\u2581aw": 1891,
  "\u2581\u0413\u043e": 1892,
  "\u2581\u0442\u043e\u0433\u043e": 1893,
  "OT": 1894,
  "\u0438\u043d": 1895,
  "\u2581Str": 1896,
  "ions": 1897,
  "\u2581https": 1898,
  "!\u201d": 1899,
  "\u2581(2": 1900,
  "\u2581Pan": 1901,
  "app": 1902,
  "ister": 1903,
  "\u2581red": 1904,
  "yst": 1905,
  "\u0449\u0438": 1906,
  "\u2581\u0411\u0438": 1907,
  "~": 1908,
  "\u043d\u0434\u0430": 1909,
  "ester": 1910,
  "old": 1911,
  "\u258136": 1912,
  "\u0442\u0438\u0442\u0435": 1913,
  "\u2581\u2192": 1914,
  "hel": 1915,
  "eter": 1916,
  ",5": 1917,
  "\u2581tap": 1918,
  "los": 1919,
  "\u2581top": 1920,
  "\u2581Mak": 1921,
  "\u2581sti": 1922,
  "\u2581had": 1923,
  "over": 1924,
  "ilt": 1925,
  "\u0434\u043d\u0430": 1926,
  "\u2581bro": 1927,
  "In": 1928,
  "led": 1929,
  "\u0433\u0435\u043d": 1930,
  "ital": 1931,
  "\u2581wal": 1932,
  "\u258132": 1933,
  "omen": 1934,
  "2)": 1935,
  "\u0442\u0440\u0430": 1936,
  "cl": 1937,
  "ark": 1938,
  "\u2581150": 1939,
  "\u2581dec": 1940,
  "\u2581\u0412\u044b": 1941,
  "\u2581\u043f\u0438": 1942,
  "\u2581neg": 1943,
  "\u2581\u043e\u0441\u0442\u0430": 1944,
  "\u2581sat": 1945,
  "Al": 1946,
  "\u25812018.": 1947,
  ",\"": 1948,
  "ism": 1949,
  "\u2581gener": 1950,
  "\u043b\u043d\u043e": 1951,
  "sto": 1952,
  "\u0442\u0430\u0440\u044b": 1953,
  "\u043d\u044c": 1954,
  "imb": 1955,
  "\u043d\u0438\u0446\u0438": 1956,
  "\u2581Ac": 1957,
  "\u2581\u0430\u043b": 1958,
  "\u2581Mac": 1959,
  "\u2581stor": 1960,
  ");": 1961,
  "\u2581liv": 1962,
  "\u2581Sur": 1963,
  "21": 1964,
  "\u258111.": 1965,
  "\u2581hab": 1966,
  "\u2581lib": 1967,
  "enc": 1968,
  "95": 1969,
  "\u043b\u0442": 1970,
  "\u2581ord": 1971,
  "\u0444\u0430": 1972,
  "\u2581\u0433\u0440\u0430": 1973,
  "\u2010": 1974,
  "\u2581Post": 1975,
  "port": 1976,
  "\u043f\u0440\u0430": 1977,
  "\u2581\u0438\u043d": 1978,
  "\u0442\u0438\u0432": 1979,
  "\u2581leis": 1980,
  "\u2581Mor": 1981,
  "\u2581\u0442\u0440\u0438": 1982,
  "97": 1983,
  "ires": 1984,
  "\u0428": 1985,
  "',": 1986,
  "5)": 1987,
  "eller": 1988,
  "\u2581\u0427": 1989,
  "\u2581Bel": 1990,
  "\u2581\u0442\u043e\u043c": 1991,
  "\u2581Web": 1992,
  "\u2581\u0431\u0443\u0434\u0435\u0442": 1993,
  "tak": 1994,
  "\u2581wo": 1995,
  "ign": 1996,
  "itor": 1997,
  "\u2581HD": 1998,
  "\u0441\u043a\u0438\u0439": 1999,
  "\u0432\u043d\u0438": 2000,
  "\u0448\u0442\u0430": 2001,
  "CH": 2002,
  "inter": 2003,
  "\u258112.": 2004,
  "\u2581\u0444": 2005,
  "\u0442\u0435\u043b": 2006,
  "\u2581put": 2007,
  "IP": 2008,
  "ST": 2009,
  "\u0432\u0430\u0442\u044c": 2010,
  "\u2581\u0412\u0430": 2011,
  "\u2581\u0421\u0435": 2012,
  "\u0440\u044b\u043d": 2013,
  "vr": 2014,
  "\u2581Pen": 2015,
  "\u0449\u0435": 2016,
  "\u0449": 2017,
  "\u2581smo": 2018,
  "\u2581Cr": 2019,
  "\u2581\u0432\u0440\u0435\u043c\u0435": 2020,
  "\u0419": 2021,
  "wn": 2022,
  "\u2581\u0441\u0442\u043e": 2023,
  "son": 2024,
  "ize": 2025,
  "way": 2026,
  "\u2581\u043a\u0440\u0430": 2027,
  "\u2581pin": 2028,
  "IG": 2029,
  "BA": 2030,
  "\u2581\u043f\u043e\u0441\u043b\u0435": 2031,
  "idd": 2032,
  "\u2581etc": 2033,
  "\u2581bad": 2034,
  "\u2581\u043f\u0440\u043e\u0441\u0442\u043e": 2035,
  "\u2581400": 2036,
  "\u043a\u043b\u0430": 2037,
  "\u2581dre": 2038,
  "7)": 2039,
  "iller": 2040,
  "\u2581BBC": 2041,
  "\u2581prov": 2042,
  "\u0441\u0442\u0430\u043d": 2043,
  "\u2581real": 2044,
  "\u258134": 2045,
  "\u2581--": 2046,
  "\u00ae": 2047,
  "hy": 2048,
  "\u2581\u0440\u0430\u0441": 2049,
  "\u2581Ed": 2050,
  "nings": 2051,
  "200": 2052,
  "\u043d\u043e\u0435": 2053,
  "mon": 2054,
  "\u043c\u0435\u0440": 2055,
  "\u2581moment": 2056,
  "med": 2057,
  "\u2581kit": 2058,
  "lic": 2059,
  "\u2581fre": 2060,
  "4)": 2061,
  "\u2581prof": 2062,
  "ved": 2063,
  "\u0436\u0434\u0430": 2064,
  "\u2581Twitter": 2065,
  "\u043b\u0434": 2066,
  "cas": 2067,
  "\u2581sport": 2068,
  "\u2581\u0420\u043e": 2069,
  "\u0440\u044d": 2070,
  "6)": 2071,
  "\u2581EU": 2072,
  "\u2581trans": 2073,
  "RE": 2074,
  "\u2581\u0434\u0432\u0430": 2075,
  "\u2581\u0421\u0438": 2076,
  "\u2581\u0430\u0431\u043e": 2077,
  "\u0441\u043a\u043e\u0439": 2078,
  ",000": 2079,
  "egu": 2080,
  "\u043a\u043e\u0439": 2081,
  "ory": 2082,
  "\u044f\u043d": 2083,
  "\u2581cl": 2084,
  "\u043b\u043d\u0438": 2085,
  "\u2581pet": 2086,
  "\u2581ton": 2087,
  "\u2581Mil": 2088,
  "ton": 2089,
  "\u2581Gar": 2090,
  "xi": 2091,
  "\u2581AS": 2092,
  "\u0441\u043a\u0438\u0445": 2093,
  "\u2581gro": 2094,
  "ags": 2095,
  "\u0447\u043d\u0438": 2096,
  "\u2581Tra": 2097,
  "\u2581<": 2098,
  "\u2581\u0443\u043b": 2099,
  "\u2581\u042e": 2100,
  "\u2581\u043c\u043e\u0436\u0435\u0442": 2101,
  "\u2581sad": 2102,
  "\u2581\u0430\u0431": 2103,
  "\u2581\u0432\u0440\u0435\u043c\u044f": 2104,
  "\u0440\u0430\u043c": 2105,
  "DA": 2106,
  "\u043d\u043e\u0441\u0442\u044c": 2107,
  "\u2581gas": 2108,
  "\u2581\u043f\u0440\u0430\u0432\u0430": 2109,
  "\u2581Inter": 2110,
  "\u2581Sol": 2111,
  "\u2581comp": 2112,
  "agu": 2113,
  "alm": 2114,
  "\u25812000": 2115,
  "\u043b\u0435\u0440": 2116,
  "\u25814,": 2117,
  "\u2581\u0412\u0435": 2118,
  "\u2581Fe": 2119,
  "\u0441\u043d\u0438": 2120,
  "\u043b\u044c\u043d\u043e\u0433\u043e": 2121,
  "oval": 2122,
  "\u2581\u0435\u0441\u043b\u0438": 2123,
  "\u2581sens": 2124,
  "\u0446\u0446\u0430": 2125,
  "\u0441\u043a\u0430\u044f": 2126,
  "\u2581\u043f\u0440\u0430\u0432\u043e": 2127,
  "\u043f\u0440\u0435": 2128,
  "\u2581\u0448\u0430": 2129,
  "\u25812006": 2130,
  "\u0442\u0435\u043b\u0438": 2131,
  "ump": 2132,
  "ader": 2133,
  "\u0434\u0435\u0440": 2134,
  "\u2581way": 2135,
  "\u0440\u0438\u044f": 2136,
  "\u2581\u043a\u043e\u0442\u043e\u0440\u044b\u0435": 2137,
  "\u2581map": 2138,
  "\u2581(4": 2139,
  "\u0434\u0437\u0435": 2140,
  "\u044e\u0442\u0441\u044f": 2141,
  "\u2581Som": 2142,
  "\u043d\u0438\u044e": 2143,
  "\u2581Inc": 2144,
  "eria": 2145,
  "\u2581media": 2146,
  "\u258138": 2147,
  "\u2581Art": 2148,
  "bre": 2149,
  "\u2581\u043d\u0435\u0433\u043e": 2150,
  "\u2581Top": 2151,
  "\u2581conc": 2152,
  "\u2581Bet": 2153,
  "ence": 2154,
  "29": 2155,
  "\u2581deb": 2156,
  "\u2581app": 2157,
  "\u0427": 2158,
  "\u0439\u043d": 2159,
  "ems": 2160,
  "\u2581lit": 2161,
  "\u2581\u0422\u0435": 2162,
  "rop": 2163,
  "\u2581sav": 2164,
  "\u2581\u0443\u0436\u0435": 2165,
  "\u2581see": 2166,
  "\u0443\u043b": 2167,
  "\u2581::": 2168,
  "\u2581oper": 2169,
  "\u2581bit": 2170,
  "\u2581just": 2171,
  "\u2581hotel": 2172,
  "my": 2173,
  "65": 2174,
  "mit": 2175,
  "\u2581cat": 2176,
  "\u2581bre": 2177,
  "IV": 2178,
  "\u2581100%": 2179,
  "\u2581Land": 2180,
  "\u2581Fl": 2181,
  "\u2581anti": 2182,
  "ble": 2183,
  "\u043a\u0440\u0430": 2184,
  "\u258113.": 2185,
  "\u2581\u043e\u043d\u0438": 2186,
  "OP": 2187,
  "ener": 2188,
  "\u2581Nor": 2189,
  "$": 2190,
  "\u2581Ste": 2191,
  "\u2581chat": 2192,
  "\u2581bus": 2193,
  "\u2581Gi": 2194,
  "\u2581My": 2195,
  "\u2581\u0430\u0439": 2196,
  "\u2581\u0447\u0442\u043e\u0431\u044b": 2197,
  "\u25810.": 2198,
  "\u2581\u0418\u0437": 2199,
  "yw": 2200,
  "\u2581email": 2201,
  "\u0440\u0430\u0442": 2202,
  "opp": 2203,
  "\u0432\u0430\u0442\u0430": 2204,
  "\u043b\u0430\u0439": 2205,
  "\u2581refer": 2206,
  "\u2581mill": 2207,
  "\u2581situ": 2208,
  "\u2581Bas": 2209,
  "ley": 2210,
  "\u2581\u043e\u0440": 2211,
  "\u258115.": 2212,
  "38": 2213,
  "\u2581list": 2214,
  "\u0441\u043a\u043e\u0433\u043e": 2215,
  "\u2581Fre": 2216,
  "\u043d\u043e\u0442\u043e": 2217,
  "\u2581base": 2218,
  "\u2581band": 2219,
  "OD": 2220,
  "-5": 2221,
  "\u2581\u0442\u0440\u0430": 2222,
  "48": 2223,
  "\u2581\u041f\u0440\u0435": 2224,
  "\u043f\u0435\u0440": 2225,
  "\u0432\u043e\u0439": 2226,
  "\u0434\u043e\u043c": 2227,
  "\u2581Del": 2228,
  "8)": 2229,
  "\u0432\u044b\u0445": 2230,
  "\u2581\u043a\u043e\u0438": 2231,
  "\u2581\u0411\u0435": 2232,
  "\u2581cookies": 2233,
  "\u2581model": 2234,
  "\u2581inv": 2235,
  "\u2581Windows": 2236,
  "\u2581Can": 2237,
  "\u043c\u0435\u0442": 2238,
  "\u2581\u0435\u0441\u0442\u044c": 2239,
  "\u043d\u0433": 2240,
  "\u2581God": 2241,
  "\u0448\u0435\u043d": 2242,
  "\u043b\u043e\u0441\u044c": 2243,
  "\u2581May": 2244,
  "\u2581Android": 2245,
  "cial": 2246,
  "\u2581mur": 2247,
  "\u2581rem": 2248,
  "100": 2249,
  ".:": 2250,
  "\u0434\u043d\u0438": 2251,
  "\u258137": 2252,
  "\u0446\u0443": 2253,
  "col": 2254,
  "\u0441\u043a\u0443": 2255,
  "\u0441\u0442\u0443": 2256,
  "\u2581get": 2257,
  "\u2581\u0447\u0430\u0441": 2258,
  "\u2581\u041e\u0442": 2259,
  ",...": 2260,
  "\u258155": 2261,
  "\u2581\u041a\u0443": 2262,
  "\u2581dist": 2263,
  "\u2581//": 2264,
  "\u2581\u0440": 2265,
  "98": 2266,
  "\u043b\u043e\u0433": 2267,
  "\u0432\u0430\u043b": 2268,
  "oks": 2269,
  "\u2581\u0432\u0430\u0441": 2270,
  "\u2581\u0441\u0435\u0431\u0435": 2271,
  "\u2581\u044d\u0442\u043e\u043c": 2272,
  "\u2581Res": 2273,
  "https": 2274,
  "\u258148": 2275,
  "ple": 2276,
  "\u0430\u0440\u0430": 2277,
  "\u043b\u0435\u0439": 2278,
  "\u2581\u043f\u043e\u043a\u0430": 2279,
  "\u2581Bur": 2280,
  "\u25815,": 2281,
  "-4": 2282,
  "\u2581\u043f\u0443": 2283,
  "36": 2284,
  "\u2581lim": 2285,
  "\u2581tum": 2286,
  "\u0441\u043b\u0430": 2287,
  "\u2581\u0441\u0442\u0435": 2288,
  "\u0445\u043e\u0434": 2289,
  "\u2581\u0440\u0438": 2290,
  "\u043d\u0430\u043b": 2291,
  "\u258118.": 2292,
  "arg": 2293,
  "xt": 2294,
  "\u0416": 2295,
  "\u0444\u0435": 2296,
  "\u2581motor": 2297,
  "\u0445\u0443": 2298,
  "\u258114.": 2299,
  "\u2581\u041c\u0435": 2300,
  "bb": 2301,
  "\u2581Cal": 2302,
  "\u2581UN": 2303,
  "\u25810,": 2304,
  "\u2581link": 2305,
  "\u2581\u0448\u0438": 2306,
  "\u043a\u043e\u0432\u0430": 2307,
  "\u0439\u0442\u0435": 2308,
  "ape": 2309,
  "\u2581bank": 2310,
  "\u25812017.": 2311,
  "\u2581camp": 2312,
  "ishi": 2313,
  "\u042d": 2314,
  "\u2581\u043d": 2315,
  "like": 2316,
  "\u258120.": 2317,
  "78": 2318,
  "\u2581\u043c\u0430\u0439": 2319,
  "\u0432\u0438\u0442\u0435": 2320,
  "bur": 2321,
  "\u2581AL": 2322,
  "\u2581\u0442\u0430\u043a\u0436\u0435": 2323,
  "\u0441\u043a\u043e\u043c": 2324,
  "\u2581total": 2325,
  "\u258108": 2326,
  ":00": 2327,
  "\u2581AM": 2328,
  "\u2581face": 2329,
  "cm": 2330,
  "\u0441\u0435\u043d": 2331,
  "\u043b\u044c\u043d\u043e": 2332,
  "\u2581Red": 2333,
  "\u2581stra": 2334,
  "\u2581\u043f\u0440\u0430\u0432\u0438": 2335,
  "9)": 2336,
  "\u2581region": 2337,
  "\u043d\u043e\u0432\u0430": 2338,
  "\u2581Dis": 2339,
  "\u0440\u043e\u0442": 2340,
  "\u2581\u0441\u043f\u0430": 2341,
  "\u258119.": 2342,
  "\u0442\u043a\u0430": 2343,
  "\u0432\u043e\u0433\u043e": 2344,
  "vy": 2345,
  "\u2581Vol": 2346,
  "\u2581(5": 2347,
  "\u0432\u0438\u0445": 2348,
  "\u2581intr": 2349,
  "\u0442\u043d\u0438": 2350,
  "\u0433\u043b\u0430": 2351,
  "\u2581organ": 2352,
  "\u2581\u041b\u0438": 2353,
  "ative": 2354,
  "\u2581\u0442\u0438\u043f": 2355,
  "\u2581has": 2356,
  "\u2581198": 2357,
  "\u2581\u043e\u043d\u0430": 2358,
  "yb": 2359,
  "\u2581SP": 2360,
  "\u0426": 2361,
  "IO": 2362,
  "\u2581dev": 2363,
  "\u2581present": 2364,
  "itate": 2365,
  "\u2581\u041d\u0438": 2366,
  "\u258117.": 2367,
  "oth": 2368,
  "\u2581Wat": 2369,
  "\u0436\u0435\u043d": 2370,
  "\u2581\u041a\u0438": 2371,
  "\u25811000": 2372,
  "\u2581cos": 2373,
  "\u2581\u0421\u0443": 2374,
  "ures": 2375,
  "\u2581\u0447\u0443": 2376,
  "37": 2377,
  "\u0430\u0441": 2378,
  "\u2581produc": 2379,
  "ites": 2380,
  "\u2581acc": 2381,
  "ws": 2382,
  "\u0442\u0440\u0438": 2383,
  "\u2581\u043e\u0447\u0435\u043d\u044c": 2384,
  "\u2581Aut": 2385,
  "\u2581\u043a\u0435": 2386,
  "\u00ab": 2387,
  "\u2581\u0421\u0442\u0430": 2388,
  "\u2581rep": 2389,
  "\u043d\u044b\u043c\u0438": 2390,
  "\u043f\u043b\u0430": 2391,
  "\u258116.": 2392,
  "\u2581\u0441\u043c\u0435": 2393,
  "ares": 2394,
  "\u25811-": 2395,
  "\u2581Ros": 2396,
  "\u2581\u0431\u044b\u0442\u044c": 2397,
  "\u043b\u0435\u043d\u0438\u0435": 2398,
  "\u2581Camp": 2399,
  "\u2581most": 2400,
  "bor": 2401,
  "tions": 2402,
  "out": 2403,
  "\u2581\u0442\u044b": 2404,
  "TV": 2405,
  "\u2581stat": 2406,
  "34": 2407,
  "iment": 2408,
  "\u2581spre": 2409,
  "\u043d\u044e": 2410,
  "\u2581any": 2411,
  "\u2581dro": 2412,
  "\u2581hom": 2413,
  ":30": 2414,
  "96": 2415,
  "\u2581Sc": 2416,
  "\u2581\u0413\u0430": 2417,
  "\u2581\u0432\u0430\u043c": 2418,
  "\u2581Air": 2419,
  "\u2581Tal": 2420,
  "\u2581War": 2421,
  "\u2581US": 2422,
  "\u2581Vis": 2423,
  "\u0440\u0430\u043b": 2424,
  "\u2581led": 2425,
  "\u2581\u0444\u0430": 2426,
  "\u2581Cl": 2427,
  "\u2581norm": 2428,
  "\u0448\u0442\u0435": 2429,
  "\u0448\u043e": 2430,
  "\u2581Apple": 2431,
  "hair": 2432,
  "\u043b\u0441\u044f": 2433,
  "\u2581stud": 2434,
  "\u0443\u0440": 2435,
  "oms": 2436,
  "\u2581cit": 2437,
  "PS": 2438,
  "\u25812005": 2439,
  "ides": 2440,
  "\u043b\u0438\u0441\u044c": 2441,
  "\u0410\u041d": 2442,
  "\u2581\u0430\u0440": 2443,
  "\u2581(200": 2444,
  "\u2581Hi": 2445,
  "\u2581IT": 2446,
  "\u2581cab": 2447,
  "\u2581Tom": 2448,
  "\u043f\u0440\u0438": 2449,
  "\u258175": 2450,
  "\u2581past": 2451,
  "\u258165": 2452,
  "2017": 2453,
  "ady": 2454,
  "\u2581\u043d\u0430\u043c": 2455,
  "-10": 2456,
  "ring": 2457,
  "SA": 2458,
  "\u2581III": 2459,
  "ect": 2460,
  "\u2581sec": 2461,
  "\u2581Hor": 2462,
  "\u2581ST": 2463,
  "riv": 2464,
  "cul": 2465,
  "irm": 2466,
  "\u2581\u0414\u043b\u044f": 2467,
  "ters": 2468,
  "\u258100": 2469,
  "wel": 2470,
  "\u2581Don": 2471,
  "?\"": 2472,
  "\u2581\u0442\u043e\u0439": 2473,
  "\u0434\u043e\u0432": 2474,
  "\u2581modern": 2475,
  "OG": 2476,
  "\u043b\u0430\u0443": 2477,
  "\u2581\u043b": 2478,
  "\u2581\u0433\u043b\u0430": 2479,
  "\u0431\u043e\u0440": 2480,
  "ager": 2481,
  "\u2581iPhone": 2482,
  "\u2581Ev": 2483,
  "\u25812-": 2484,
  "\u2581\u044e": 2485,
  "EG": 2486,
  "tori": 2487,
  "inal": 2488,
  "\u2581120": 2489,
  "\u2581conf": 2490,
  "\u2581\u043c\u043e\u0436\u0435\u0442\u0435": 2491,
  "\u2581Super": 2492,
  "ition": 2493,
  "33": 2494,
  "68": 2495,
  "\u2581Us": 2496,
  "\u2581\u0411\u0443": 2497,
  "\u2581fund": 2498,
  "\u2581250": 2499,
  "\u2581\u0442\u0440\u0435": 2500,
  "\u2581rol": 2501,
  "\u2581fun": 2502,
  "\u0434\u0430\u0442": 2503,
  "omis": 2504,
  "\u0430\u043b\u044c": 2505,
  "\u043d\u0435\u043c": 2506,
  "MA": 2507,
  "\u2581City": 2508,
  "unge": 2509,
  "\u0442\u043d\u0430": 2510,
  "\u2581aff": 2511,
  "king": 2512,
  "\u2581\u0431\u0430\u0439": 2513,
  "\u258121.": 2514,
  "\u0435\u0439": 2515,
  "\u2581\u041d\u0410": 2516,
  "\u2581website": 2517,
  "\u2581\u043f\u0430\u0440": 2518,
  "\u2581\u043d\u0443": 2519,
  "\u2581\u0431\u043e\u043b\u0435\u0435": 2520,
  "\u2581\u0433\u0443": 2521,
  "\u043b\u0435\u043d\u0438\u044f": 2522,
  "\u2581Rec": 2523,
  "\u2581Bor": 2524,
  "\u2581\u0415\u0441\u043b\u0438": 2525,
  "uld": 2526,
  "\u2581\u0441\u043b\u0435\u0434": 2527,
  "\u2581TR": 2528,
  "\u043b\u0435\u0442": 2529,
  "\u258144": 2530,
  "\u2581\u0446\u0438": 2531,
  "\u2581rev": 2532,
  "-8": 2533,
  "\u2581kn": 2534,
  "\u2581John": 2535,
  "\u0440\u0430\u043d\u0435": 2536,
  "ual": 2537,
  "hand": 2538,
  "\u2581\u0441\u0430\u043c": 2539,
  "\u2581197": 2540,
  "\u2581you": 2541,
  "\u2581def": 2542,
  "\u258109": 2543,
  "39": 2544,
  "ody": 2545,
  "LE": 2546,
  "ffe": 2547,
  "II": 2548,
  "\u0432\u0430\u043b\u0430": 2549,
  "\u2581\u0441\u0442\u0440\u0430": 2550,
  "\u043a\u0442": 2551,
  "\u2581Gl": 2552,
  "\u258105": 2553,
  "\u2581Plan": 2554,
  "\u0420\u0410": 2555,
  "\u044d\u0440": 2556,
  "yer": 2557,
  "\u2581\u043b\u0435\u0442": 2558,
  "\u2581ES": 2559,
  "\u2581\u0410\u0440": 2560,
  "ls": 2561,
  "\u2581Martin": 2562,
  "\u043b\u0438\u043d": 2563,
  "%,": 2564,
  "\u2581\u0425\u0430": 2565,
  "\u2581personal": 2566,
  "\u2581ple": 2567,
  "\u258107": 2568,
  "\u0434\u0430\u043c": 2569,
  "\u2581\u0445\u0438": 2570,
  "\u2581Lib": 2571,
  "\u041d\u0418": 2572,
  "67": 2573,
  "ray": 2574,
  "\u2581siz": 2575,
  "\u0442\u0443\u0440\u0430": 2576,
  "\u2581\u0442\u0430\u043c": 2577,
  "\u2581Tre": 2578,
  "\u2581fort": 2579,
  "44": 2580,
  "77": 2581,
  "''": 2582,
  "ral": 2583,
  "atis": 2584,
  "\u2581emp": 2585,
  "plan": 2586,
  "\u0441\u043e\u0432": 2587,
  "\u2581but": 2588,
  "\u2581\u0432\u0435\u0440": 2589,
  "\u044b\u043b": 2590,
  "\u2581By": 2591,
  "\u2581normal": 2592,
  "\u0448\u043a\u0438": 2593,
  "\u0440\u043e\u0432\u0430": 2594,
  "\u043a\u0441": 2595,
  "\u2581Sim": 2596,
  "\u2581cop": 2597,
  "\u2581\u0440\u044d": 2598,
  "\u0434\u043d\u0435": 2599,
  "\u2581Cel": 2600,
  "\u2581\u0412\u0441\u0435": 2601,
  "\u043d\u0435\u0439": 2602,
  "\u2581Sport": 2603,
  "88": 2604,
  "bes": 2605,
  "\u2581\u0445\u0443": 2606,
  "ety": 2607,
  "IF": 2608,
  "\u25816,": 2609,
  "\u2581\u0438\u0433\u0440\u0430": 2610,
  "\u2581hot": 2611,
  "\u2581integr": 2612,
  "\u2581have": 2613,
  "\u2581Wi": 2614,
  "\u2581\u0432\u0435\u043b\u0438": 2615,
  "\u2581\u0441\u043b\u043e": 2616,
  "used": 2617,
  "irs": 2618,
  "\u2581\u041a\u0430\u043a": 2619,
  "\u0442\u043e\u0439": 2620,
  "\u2581shi": 2621,
  "\u2581PC": 2622,
  "rd": 2623,
  "ds": 2624,
  "\u2581Program": 2625,
  "\u2581Sta": 2626,
  "\u043d\u043e\u0432\u0438": 2627,
  "\u043d\u0438\u0435\u043c": 2628,
  "-6": 2629,
  "\u25811)": 2630,
  "\u0432\u0430\u044f": 2631,
  "\u0442\u044f": 2632,
  "\u2581\u0441\u0442": 2633,
  "\u043b\u043e\u043c": 2634,
  "-0": 2635,
  "\u0441\u0442\u0430\u0440": 2636,
  "\u0432\u0430\u0440": 2637,
  "\u25812004": 2638,
  "\u2581Cap": 2639,
  "\u2581\u043b\u043e": 2640,
  "\u2581inst": 2641,
  "\u2581190": 2642,
  "\u043b\u0430\u0441\u044c": 2643,
  "\u2581ref": 2644,
  "\u043a\u0430\u0445": 2645,
  "\u2581\u043d\u0435\u043c\u0430": 2646,
  "\u2581material": 2647,
  "\u043a\u0430\u043d": 2648,
  "\u2581\u0441\u0442\u0438": 2649,
  "\u2581ep": 2650,
  "\u2581fem": 2651,
  "\u0442\u043a\u0438": 2652,
  "\u2581fit": 2653,
  "\u0437\u043d\u0438": 2654,
  "\u0434\u0430\u0440\u044b": 2655,
  "\u2581\u0430\u0432\u0442\u043e": 2656,
  "\u2581Foundation": 2657,
  "\u0441\u043b\u0438": 2658,
  "\u25812016.": 2659,
  "\u2581\u041f\u0440\u0430": 2660,
  "IB": 2661,
  "85": 2662,
  "\u043b\u044c\u043d\u044b\u0445": 2663,
  "\u0447\u043d\u043e\u0433\u043e": 2664,
  "\u2581AR": 2665,
  "\u2581IP": 2666,
  "\u2581sent": 2667,
  "\u2581more": 2668,
  "\u2581Bro": 2669,
  "\u0441\u043f\u0435": 2670,
  "66": 2671,
  "\u2581\u0414\u0438": 2672,
  "\u2581hang": 2673,
  "\u2581Star": 2674,
  "ads": 2675,
  "\u2581\u0431\u0435\u0448\u0435": 2676,
  "\u2581\u0439\u043e\u0433\u043e": 2677,
  "\u0442\u043e\u0440\u0438": 2678,
  "\u2581600": 2679,
  "\u258106": 2680,
  "\u043b\u043d\u0430": 2681,
  "\u0435\u043a": 2682,
  "day": 2683,
  "\u2019,": 2684,
  "tive": 2685,
  "\u043c\u0438\u0442\u0435": 2686,
  "oke": 2687,
  "\u2581\u0438\u043c\u0435": 2688,
  "\u2581IS": 2689,
  "\u2581hol": 2690,
  "ock": 2691,
  "\u2581institu": 2692,
  "\u043b\u0430\u0433\u0430": 2693,
  "--": 2694,
  "\u043a\u0430\u043c": 2695,
  "\u20ac": 2696,
  "\u043a\u0442\u0438": 2697,
  "ches": 2698,
  "\u2581Cons": 2699,
  "ree": 2700,
  "\u2581Gra": 2701,
  "\u0442\u0440\u043e": 2702,
  "\u042b": 2703,
  "iver": 2704,
  "\u0445\u0430\u043d": 2705,
  "\u2581Bank": 2706,
  "\u043d\u043e\u0433": 2707,
  "\u0442\u043e\u043a": 2708,
  "\u043f\u044b": 2709,
  "\u2581\u0438\u0441": 2710,
  "\u2581store": 2711,
  "\u0432\u044b\u0435": 2712,
  "\u2581local": 2713,
  "\u2581Dem": 2714,
  "\u2581PS": 2715,
  "\u0442\u0430\u043b": 2716,
  "\u043e\u043b": 2717,
  "\u0440\u0442\u0430": 2718,
  "\u0441\u043e\u043d": 2719,
  "\u2581App": 2720,
  "\u0442\u0438\u044f": 2721,
  "1-": 2722,
  "\u2581\u0440\u0430\u0431\u043e\u0442\u0430": 2723,
  "\u2581\u043a\u0440\u0438": 2724,
  "\u2581Bre": 2725,
  "\u2581\u043a\u043e\u0433\u0434\u0430": 2726,
  "\u2581Of": 2727,
  "\u2581\u0431\u0443\u043b\u0430": 2728,
  "\u2581Ass": 2729,
  "\u2581dog": 2730,
  "\u041d\u0410": 2731,
  "\u2581Cre": 2732,
  "\u2581cost": 2733,
  "\u2581fas": 2734,
  "\u044d\u0433": 2735,
  "\u2581gor": 2736,
  "\u0430\u0434": 2737,
  "\u2581pur": 2738,
  "\u2581\u043a\u0430\u043d": 2739,
  "\u043e\u043d\u0430": 2740,
  "\u25813-": 2741,
  "\u2581\u0422\u0438": 2742,
  "\u0448\u043a\u0430": 2743,
  "\u2581\u043d\u0438\u0445": 2744,
  "cies": 2745,
  "stan": 2746,
  "\u0440\u043e\u043d": 2747,
  "\u2581\u043d\u043e\u0432\u0438": 2748,
  "\u2581sw": 2749,
  "\u2581\u043e\u0431\u0440\u0430": 2750,
  "\u2581partner": 2751,
  "\u2581\u0435\u0434\u0438\u043d": 2752,
  "\u2581Park": 2753,
  "\u25812)": 2754,
  "uses": 2755,
  "St": 2756,
  "\u2581\u043c\u043d\u0435": 2757,
  "\u2581main": 2758,
  "\u2581\u0433\u0434\u0435": 2759,
  "\u0434\u0438\u0442\u0435": 2760,
  "\u258139": 2761,
  "\u0432\u043d\u0430": 2762,
  "\u043c\u0435\u043d\u0442": 2763,
  "\u2581\u0410\u043b": 2764,
  "TR": 2765,
  "\u2581\u0434\u043e\u043c\u0430": 2766,
  "ays": 2767,
  "32": 2768,
  "ible": 2769,
  "\u2581\u043f\u0435\u0440\u0430": 2770,
  "\u2581stop": 2771,
  "201": 2772,
  "\u2581\u042d\u0442\u043e": 2773,
  "\u2581\u0435\u0449\u0435": 2774,
  "\u2581Media": 2775,
  "\u25817,": 2776,
  "\u2581univers": 2777,
  "\u0441\u0442\u0430\u0432": 2778,
  "\u0434\u0440\u0430": 2779,
  "\u2581teen": 2780,
  "\u2581\u0420\u0443": 2781,
  "\u0432\u0430\u043d\u0438\u044f": 2782,
  "LA": 2783,
  "\u044f\u0442\u0430": 2784,
  "\u2581Off": 2785,
  "\u2581September": 2786,
  "ids": 2787,
  "\u2581disc": 2788,
  "\u2581Ru": 2789,
  "94": 2790,
  "ibil": 2791,
  "\u2581\u043f\u0440\u043e\u0434\u0430": 2792,
  "\u2581consider": 2793,
  "\u0444\u043e": 2794,
  "\u2581\u0431\u0430\u0448": 2795,
  "\u0432\u0435\u0442": 2796,
  "\u2581\u043f\u0440\u043e\u0442\u0438\u0432": 2797,
  "\u2581\u0447\u0435\u043c": 2798,
  "\u2581radi": 2799,
  "\u2581dam": 2800,
  "\u2581\u041e\u0431": 2801,
  "illi": 2802,
  "!\"": 2803,
  "\u043b\u0430\u0442\u0430": 2804,
  "lec": 2805,
  "\u2581\u044d\u0442\u043e\u0433\u043e": 2806,
  "\u0441\u043f\u043e": 2807,
  "\u2581180": 2808,
  "\u2581Pat": 2809,
  "\u0432\u0430\u043c": 2810,
  "\u0446\u0435\u043d": 2811,
  "\u2581mail": 2812,
  "\u2581York": 2813,
  "The": 2814,
  "\u2581\u0448\u0443": 2815,
  "\u2581\u0446": 2816,
  "\u2581AD": 2817,
  "\u2581arm": 2818,
  "\u0432\u043a\u0430": 2819,
  "\u2581long": 2820,
  "\u258101": 2821,
  "\u2581\u043f\u0440\u0435\u0437": 2822,
  "\u2581\u043c\u0435\u043d\u044f": 2823,
  "EA": 2824,
  "\u2581(18": 2825,
  "\u2581arr": 2826,
  "-7": 2827,
  "qui": 2828,
  "\u2581mum": 2829,
  "\u2581Form": 2830,
  ".-": 2831,
  "ols": 2832,
  "%.": 2833,
  "\u2581design": 2834,
  "\u2581with": 2835,
  "\u0441\u0442\u0432\u0443": 2836,
  "\u0440\u0435\u043a": 2837,
  "egy": 2838,
  "\u2581\u0433\u043e\u0434\u0443": 2839,
  "\u2581cy": 2840,
  "\u2581\u0432\u043b\u0430": 2841,
  "\u2581pow": 2842,
  "\u2581\u043f\u043e\u0434\u0430": 2843,
  "TO": 2844,
  "\u2581\u0447\u0430\u0441\u0442": 2845,
  "\u258122.": 2846,
  "\u2581Port": 2847,
  "\u2581\u0425\u043e": 2848,
  "\u2581\u043a\u0430\u0440": 2849,
  "\u2581dep": 2850,
  "31": 2851,
  "vert": 2852,
  "\u0437\u044c": 2853,
  "\u2581perc": 2854,
  "\u258142": 2855,
  "\u0440\u0435\u0434": 2856,
  "\u0410\u0420": 2857,
  "\u0442\u0430\u043c": 2858,
  "\u2581leng": 2859,
  "\u043c\u044f": 2860,
  "\u2581mind": 2861,
  "\u043c\u0430\u0442": 2862,
  "\u2581\u041b\u0435": 2863,
  "\u2581if": 2864,
  "\u2581\u041c\u0430\u0440": 2865,
  "\u25812015.": 2866,
  "ules": 2867,
  "AV": 2868,
  "\u2581\u043d\u0430\u0443": 2869,
  "\u2581\u0446\u0430": 2870,
  "\u043c\u0430\u0439": 2871,
  "\u2581\u0441\u0440\u0435\u0434": 2872,
  "\u0437\u0430\u043d": 2873,
  "\u0447\u0435\u0441\u043a\u0438": 2874,
  "\u043d\u0434\u0435": 2875,
  "\u2581special": 2876,
  "\u2581\u0441\u0430\u0439": 2877,
  "\u2581\u0448\u0435": 2878,
  "\u043e\u0431": 2879,
  "\u2581\u0447\u0435\u0440\u0435\u0437": 2880,
  "\u2581\u0434\u0435\u043d\u044c": 2881,
  "\u2581Bra": 2882,
  "time": 2883,
  "emat": 2884,
  "\u2581\u0441\u0432\u0435\u0442": 2885,
  "Com": 2886,
  "\u043f\u0435\u043d": 2887,
  "\u2581trad": 2888,
  "\u2581\u043c\u0435\u0436\u0434\u0443": 2889,
  "\u2581(0": 2890,
  "\u043d\u0438\u0446\u0430": 2891,
  "\u2581Paul": 2892,
  "line": 2893,
  "55": 2894,
  "\u0441\u0442\u0440\u043e": 2895,
  "\u2581radio": 2896,
  "imat": 2897,
  "\u2581\u0441\u0442\u0443": 2898,
  "\u2581hit": 2899,
  "\u2581she": 2900,
  "pla": 2901,
  "\u2581CD": 2902,
  "\u043c\u0430\u0442\u0438": 2903,
  "\u258110,": 2904,
  "SS": 2905,
  "\u0447\u043e": 2906,
  "\u043c\u0438\u043d\u0430": 2907,
  "\u2581\u0411\u044b\u043b": 2908,
  "ight": 2909,
  "\u2581out": 2910,
  "rog": 2911,
  "\u0447\u0438\u043d": 2912,
  "\u2581big": 2913,
  "\u0432\u043e\u0434": 2914,
  "\u2581196": 2915,
  "ope": 2916,
  "ily": 2917,
  "\u2581\u043f\u043e\u0441\u0442\u0430": 2918,
  "-,": 2919,
  "\u2581\u043f\u043e\u0441\u0435": 2920,
  "\u043b\u044c\u043d\u0430": 2921,
  "64": 2922,
  "\u2581Best": 2923,
  "\u043a\u0438\u0439": 2924,
  "EP": 2925,
  "\u2581pav": 2926,
  "\u0440\u043e\u0434": 2927,
  "\u2581\u043f\u043e\u043b\u0438\u0442\u0438": 2928,
  "\u2581compr": 2929,
  "\u2581start": 2930,
  "\u2581\u043e\u0431\u043e": 2931,
  "10.": 2932,
  "ief": 2933,
  "\u2581~": 2934,
  "\u0431\u0435\u0440": 2935,
  "\u043b\u043e\u043d": 2936,
  "hs": 2937,
  "11.": 2938,
  "\u2581general": 2939,
  "\u0440\u0430\u0437": 2940,
  "\u0441\u043b\u0435": 2941,
  "'.": 2942,
  "\u2581\u0441\u043b\u0430": 2943,
  "\u0435\u0442\u0435": 2944,
  "\u043b\u0430\u0434\u044b": 2945,
  "\u2581\u0422\u0443": 2946,
  "\u0442\u043e\u0442": 2947,
  "\u0443\u0434": 2948,
  "\u2581extra": 2949,
  "ture": 2950,
  "\u2581\u0443\u0447\u0435": 2951,
  "ident": 2952,
  "\u2581soci": 2953,
  "\u2581Free": 2954,
  "\u2581forum": 2955,
  "\u2581sid": 2956,
  "SI": 2957,
  "\u2581propos": 2958,
  "500": 2959,
  "\u25812003": 2960,
  "\u2581\u0431\u044b\u043b\u0430": 2961,
  "UB": 2962,
  "\u2581Trump": 2963,
  "ates": 2964,
  "\u2581\u0433\u043e\u0434": 2965,
  "otta": 2966,
  "\u0432\u043e\u043c": 2967,
  "\u2581Hay": 2968,
  "-19": 2969,
  "\u2581\u043e\u0441": 2970,
  "\u2581World": 2971,
  "\u0440\u0430\u0442\u0430": 2972,
  "PR": 2973,
  "\u2581\u041c\u044b": 2974,
  "\u2581\u0420\u043e\u0441\u0441\u0438\u0438": 2975,
  "\u2581\u0431\u0440\u0430": 2976,
  "\u2581\u0431\u0430\u043b\u0430": 2977,
  "oper": 2978,
  "\u258123.": 2979,
  "\u2581\u0437\u043e": 2980,
  "ements": 2981,
  "\u2581IV": 2982,
  "\u2581registr": 2983,
  "\u0435\u043b": 2984,
  "\u2581\u0441\u043c\u043e": 2985,
  "\u2581David": 2986,
  "\u2581ped": 2987,
  "\u0422\u0410": 2988,
  "/2018": 2989,
  "\u25812002": 2990,
  "\u2581mark": 2991,
  ":2": 2992,
  "\u2581\u0422\u0430\u043a": 2993,
  "\u2581him": 2994,
  "\u0432\u0435\u0442\u0435": 2995,
  "\u2581sev": 2996,
  "\u2581fast": 2997,
  "\u2581\u0442\u0435\u043c": 2998,
  "inder": 2999,
  "win": 3000,
  "\u0433\u0430\u043d": 3001,
  "\u258147": 3002,
  "ables": 3003,
  "\u2581add": 3004,
  "\u2581South": 3005,
  "\u2581term": 3006,
  "\u2581Bay": 3007,
  "\u2581\u043a\u043e\u0442\u043e\u0440\u044b\u0439": 3008,
  "ms": 3009,
  "-20": 3010,
  "\u0448\u043a\u043e": 3011,
  "uge": 3012,
  "\u2581\u043f\u043e\u0432": 3013,
  "\u043c\u0430\u0442\u0430": 3014,
  "\u0440\u0430\u0439": 3015,
  "TT": 3016,
  "\u2581\u0443\u0441": 3017,
  "\u2581Hand": 3018,
  "\u0431\u0430\u0440": 3019,
  "\u2581\u041f\u0435": 3020,
  "\u2581\u0434\u0435\u043d": 3021,
  "ional": 3022,
  "12.": 3023,
  "\u2581\u0433\u0440\u0443": 3024,
  "\u043d\u0430\u0442": 3025,
  "\u2581Wal": 3026,
  "\u2581rest": 3027,
  "\u25812014.": 3028,
  "\u2581Sub": 3029,
  "\u258164": 3030,
  "\u2581conta": 3031,
  "\u0431\u043b\u0438": 3032,
  "\u2581\u0434\u0430\u0436\u0435": 3033,
  "\u0421\u0422": 3034,
  "\u043a\u0438\u0445": 3035,
  "\u043e\u0441": 3036,
  "\u2581article": 3037,
  "mod": 3038,
  "\u2581vast": 3039,
  "\u2581Social": 3040,
  "\u2581\u0435\u0435": 3041,
  "\u2581Hol": 3042,
  "\u0442\u0443\u0440": 3043,
  "\u0431\u0430\u0439": 3044,
  "\u2581date": 3045,
  "\u2581\u043d\u0443\u0436\u043d\u043e": 3046,
  "\u043b\u0435\u043c": 3047,
  "\u043d\u0435\u0440": 3048,
  "\u2581organis": 3049,
  "\u0435\u0442\u043e": 3050,
  "\u2581element": 3051,
  "\u2581\u0430\u0442\u0430": 3052,
  "\u2581\u043f\u0430\u0434": 3053,
  "47": 3054,
  "\u2581jud": 3055,
  "ical": 3056,
  "\u2581emb": 3057,
  "\u0448\u0438\u0445": 3058,
  "\u043a\u043e\u043d": 3059,
  "\u0443\u043d": 3060,
  "\u2581game": 3061,
  "\u2581due": 3062,
  "ages": 3063,
  "\u2581popular": 3064,
  ".\u2019": 3065,
  "\u0442\u043e\u0432\u0430": 3066,
  "\u2581full": 3067,
  "\u041b\u0410": 3068,
  "\u2581800": 3069,
  "\u0432\u043b\u044f": 3070,
  "\u044f\u0445": 3071,
  "\u2581transport": 3072,
  "\u0434\u0438\u043d": 3073,
  "ced": 3074,
  "\u2581(6": 3075,
  "\u25811:": 3076,
  "\u2581China": 3077,
  "\u2581hid": 3078,
  "\u2581\u0434\u043e\u0431\u0438": 3079,
  "\u2581\u0431\u0443\u0434\u0435": 3080,
  "\u2581motiv": 3081,
  "\u0440\u0430\u043d\u0438": 3082,
  "\u2581\u041b\u0430": 3083,
  "DE": 3084,
  "\u2581\u0414\u0443": 3085,
  "\u25818,": 3086,
  "\u043d\u0430\u0445": 3087,
  "\u0441\u043a\u0430\u0439": 3088,
  "\u2581natural": 3089,
  "\u2581Dep": 3090,
  "\u2581Up": 3091,
  "\u2581domin": 3092,
  "\u0441\u0442\u0435\u0440": 3093,
  "\u2581Read": 3094,
  "\u043b\u0435\u043d\u0430": 3095,
  "\u2581\u043f\u0430\u0440\u0430": 3096,
  "\u2581hall": 3097,
  "\u2581\u043d\u044f": 3098,
  "\u2581mont": 3099,
  "\u2581\u043f\u043e\u043b\u0438": 3100,
  "\u0446\u0438\u044e": 3101,
  "\u0434\u0435\u043b": 3102,
  "\u2581inspir": 3103,
  "\u258124.": 3104,
  "set": 3105,
  "\u2581regul": 3106,
  "93": 3107,
  "\u0440\u0435\u0434\u0438": 3108,
  "anger": 3109,
  "\u2581\u0434\u0432\u0435": 3110,
  "\u043f\u0430\u043d": 3111,
  "\u2581Sir": 3112,
  "\u2581\u0440\u0430\u0434\u0438": 3113,
  "\u043b\u043e\u0433\u0438": 3114,
  "\u2581Lan": 3115,
  "ands": 3116,
  "\u043a\u0432\u0430": 3117,
  "\u2581optim": 3118,
  "\u2581\u043e\u0434\u0438\u043d": 3119,
  "\u2581temp": 3120,
  "\u2581\u0430\u043b\u0438": 3121,
  "\u2581Black": 3122,
  "\u2581\u044f\u0433\u043e": 3123,
  "\u2581lot": 3124,
  "\u2581Gro": 3125,
  "\u2581last": 3126,
  "\u043c\u0435\u043d\u0442\u0430": 3127,
  "cker": 3128,
  "\u2581\u0430\u043d": 3129,
  "\u2581rob": 3130,
  "\u258104": 3131,
  "RO": 3132,
  ":)": 3133,
  "\u0441\u043b\u0443": 3134,
  "\u2581\u043c\u0435\u0441\u0442\u043e": 3135,
  "raw": 3136,
  "\u044d\u0434": 3137,
  "\u2581control": 3138,
  "\u2581\u043e\u0441\u043d\u043e": 3139,
  "\u2581\u0410\u043b\u0435": 3140,
  "\u0442\u0438\u043d": 3141,
  "http": 3142,
  "\u258185": 3143,
  "\u0442\u044d": 3144,
  ")?": 3145,
  "\u2581\u0418\u043d": 3146,
  "\u2581\u0440\u0430\u0431\u043e\u0442\u044b": 3147,
  "itter": 3148,
  "TS": 3149,
  "\u2581\u043e\u0431\u043b\u0430\u0441\u0442\u0438": 3150,
  "\u2581\u0442\u043e\u043c\u0443": 3151,
  "oden": 3152,
  "\u2581tend": 3153,
  "\u2581\u043e\u043f": 3154,
  "\u2581\u043f\u043e\u043b": 3155,
  "\u258146": 3156,
  "\u0441\u0442\u0432\u0435": 3157,
  "\u258143": 3158,
  "\u258103": 3159,
  "\u043c\u0430\u0440": 3160,
  "-12": 3161,
  "\u2581\u043d\u0435\u0442": 3162,
  "\u043a\u0435\u043d": 3163,
  "\u25812:": 3164,
  "\u2581bac": 3165,
  "\u2581\u0437\u0430\u044f": 3166,
  "\u2581Net": 3167,
  "\u2581lic": 3168,
  "\u0437\u0434\u0430": 3169,
  "eds": 3170,
  "\u2581\u0446\u0435\u043d": 3171,
  "vent": 3172,
  "\u2581Max": 3173,
  "\u2581\u0431\u043e\u043b\u044c\u0448\u0435": 3174,
  "\u2581MP": 3175,
  "\u2581\u0417\u0410": 3176,
  "inner": 3177,
  "\u2581194": 3178,
  "cur": 3179,
  "\u0443\u043b\u0430": 3180,
  "\u041d\u0430": 3181,
  "\u2581stand": 3182,
  "\u2581(201": 3183,
  "\u043d\u0441\u043a\u0438": 3184,
  "\u2581free": 3185,
  "mark": 3186,
  "iles": 3187,
  "\u2581lov": 3188,
  "\u0432\u0430\u0439": 3189,
  "\u0422\u0415": 3190,
  "\u2581mass": 3191,
  "\u2581AC": 3192,
  "\u0442\u0438\u043a\u0430": 3193,
  "\u2581\u0436\u0438\u0432\u043e\u0442": 3194,
  "\u2581text": 3195,
  "\u258125.": 3196,
  "\u2581Microsoft": 3197,
  "\u2581serv": 3198,
  "\u2581November": 3199,
  "\u2581hum": 3200,
  "92": 3201,
  "\u2581\u041e\u043d": 3202,
  "\u2581proced": 3203,
  "\u2581industri": 3204,
  "\u2581VI": 3205,
  "\u2581Tri": 3206,
  "\u2581\u0440\u0430\u0439\u043e\u043d": 3207,
  "\u043d\u0438\u043c\u0438": 3208,
  "\u043a\u0442\u0430": 3209,
  "2016": 3210,
  "gs": 3211,
  "\u2581Che": 3212,
  "\u2581Lab": 3213,
  "\u2581\u0444\u0438": 3214,
  "\u2581liter": 3215,
  "\u0440\u0438\u043d": 3216,
  "\u2581\u0441\u043f\u0440\u0430": 3217,
  "\u0449\u043e": 3218,
  "press": 3219,
  "\u2581\u043a\u043e\u043b\u0438": 3220,
  "\u2581\u0435\u0440": 3221,
  "\u043a\u0430\u0440": 3222,
  "ues": 3223,
  "-2018": 3224,
  "\u2581Out": 3225,
  "\u0442\u0430\u0442\u0430": 3226,
  "\u2581service": 3227,
  "\u0439\u0433": 3228,
  "\u0447\u0430\u0442": 3229,
  "elf": 3230,
  "\u2581doc": 3231,
  "rel": 3232,
  "\u25819,": 3233,
  "\u2581ill": 3234,
  "\u2581More": 3235,
  "\u0434\u0430\u0442\u0430": 3236,
  "\u2581\u043b\u044e\u0434\u0435\u0439": 3237,
  "\u2581Dec": 3238,
  "\u2581\u0438\u0441\u0442\u043e": 3239,
  "\u2581\u0441\u044b": 3240,
  "\u0437\u0432\u0430": 3241,
  "\u041d\u041e": 3242,
  "PA": 3243,
  "char": 3244,
  "\u2581199": 3245,
  "\u043d\u043e\u043c\u0443": 3246,
  "\u2581fall": 3247,
  "\u2581Sup": 3248,
  "\u2581time": 3249,
  "pers": 3250,
  "\u2581day": 3251,
  "cle": 3252,
  "\u2581Club": 3253,
  "\u2581\u0441\u0438\u0441\u0442\u0435\u043c\u0430": 3254,
  "\u043b\u0430\u0445": 3255,
  "\u043b\u043e\u0433\u043e": 3256,
  "\u0432\u0440": 3257,
  "\u2581contact": 3258,
  "\u0440\u0430\u0445": 3259,
  "\u0437\u044f": 3260,
  "\u25814-": 3261,
  "bed": 3262,
  "\u2581compl": 3263,
  "\u043a\u043b\u0430\u0434": 3264,
  "\u2581\u0431\u0438\u043e": 3265,
  "ric": 3266,
  "fall": 3267,
  "\u2581\u0441\u0443\u0434": 3268,
  "under": 3269,
  "\u2581\u0431\u0443\u0434\u0443": 3270,
  "\u2581Gre": 3271,
  "\u2581festival": 3272,
  "\u043d\u0430\u0440": 3273,
  "\u0447\u043d\u044b\u0445": 3274,
  "\u2581\u0441\u0430\u0439\u0442": 3275,
  "\u2581195": 3276,
  "\u2581Trans": 3277,
  "\u043d\u0438\u043a\u0438": 3278,
  "\u2581\u0432\u0440\u0430": 3279,
  "\u2581End": 3280,
  "\u2581\u043f\u0440": 3281,
  "\u0440\u043c\u0430": 3282,
  "SE": 3283,
  "ery": 3284,
  "\u2581perm": 3285,
  "ffer": 3286,
  "\u2581\u0410\u043d": 3287,
  "\u2581\u0423\u0444\u044b": 3288,
  "\u2581Africa": 3289,
  "\u2581\u041f\u0440\u0435\u0434": 3290,
  "emy": 3291,
  "!)": 3292,
  "\u2581fly": 3293,
  "-18": 3294,
  "\u0432\u0441\u044f": 3295,
  "\u2581cent": 3296,
  "\u2581\u0420\u0430\u0437": 3297,
  "\u043d\u043e\u043a": 3298,
  "\u2581Cho": 3299,
  "\u0431\u0430\u043d": 3300,
  "\u2581\u0434\u0440\u0443": 3301,
  "\u2581\u043f\u0440\u0435\u0434\u0441\u0442\u0430\u0432": 3302,
  "\u2581\u0444\u043e\u0442\u043e": 3303,
  "\u258154": 3304,
  "\u043c\u043e\u0432": 3305,
  "\u2581grand": 3306,
  "\u2581\u043a\u043b\u0430": 3307,
  "\u0437\u043c": 3308,
  "\u2581\u0434\u044b": 3309,
  "\u2581\u041c\u0443": 3310,
  "\u2581\u041f\u0435\u0440": 3311,
  "ision": 3312,
  "\u2581\u0434\u0435\u043b\u0430": 3313,
  "ied": 3314,
  "\u258130.": 3315,
  "\u2581\u043f\u043b\u043e": 3316,
  "\u2581\u0441\u043a\u0430": 3317,
  "\u2581eth": 3318,
  "\u2581\u0441\u0435\u0431\u044f": 3319,
  "\u2581Rep": 3320,
  "\u2581yet": 3321,
  "don": 3322,
  "\u2581PDF": 3323,
  "76": 3324,
  "\u2581bid": 3325,
  "\u25812001": 3326,
  "\u0441\u0430\u043c": 3327,
  "\u2581XX": 3328,
  "udd": 3329,
  "\u043b\u0438\u0442\u0435": 3330,
  "\u0415\u041d": 3331,
  "\u0440\u0430\u043a": 3332,
  "\u2581NG": 3333,
  "))": 3334,
  "\u0432\u0435\u0434\u0435": 3335,
  "\u0440\u0433\u0430": 3336,
  "\u0434\u043e\u0432\u0430": 3337,
  "\u2581oblig": 3338,
  "\u2581\u0432\u0441\u0435\u0433\u043e": 3339,
  "\u2581invest": 3340,
  "\u0441\u0442\u0435\u0439": 3341,
  "\u2581\u0419": 3342,
  "\u0442\u0435\u0440\u0438": 3343,
  "\u0434\u043e\u0431": 3344,
  "\u2581\u0432\u0438\u0434\u0435\u043e": 3345,
  "rup": 3346,
  "\u2581ran": 3347,
  "\u2581Tim": 3348,
  "\u2581Sus": 3349,
  "\u0447\u0438\u0445": 3350,
  "ford": 3351,
  "\u2581\u043d\u043e\u0432\u043e": 3352,
  "\u2581constitu": 3353,
  "arian": 3354,
  "\u0436\u043d\u0430": 3355,
  "\u2581\u0441\u0443\u043c": 3356,
  "\u2581contribu": 3357,
  "\u2581defin": 3358,
  "\u0447\u0435\u0441\u043a\u0438\u0445": 3359,
  "cep": 3360,
  "\u2581\u0442\u0435\u043b\u0435": 3361,
  "\u2581automat": 3362,
  "\u0436\u043d\u043e": 3363,
  "\u2581\u0441\u043f\u043e\u0440\u0442": 3364,
  "-200": 3365,
  "\u0434\u044f": 3366,
  "\u2581\u0430\u0443": 3367,
  "\u2581miss": 3368,
  "\u2581\u0437\u0430\u043f\u0430": 3369,
  "<": 3370,
  "\u25811,5": 3371,
  "\u0432\u043d\u0435": 3372,
  "\u2581\u0441\u0435\u0440": 3373,
  "\u043e\u043c": 3374,
  "\u043b\u044c\u043d\u043e\u0439": 3375,
  "\u2581\u0445\u0430\u0440": 3376,
  "\u2581\u0442\u0430\u043a\u043e": 3377,
  "\u2581fill": 3378,
  "CC": 3379,
  "emas": 3380,
  "\u2581\u0426\u0435": 3381,
  "\u2581OS": 3382,
  "\u0449\u0435\u043d": 3383,
  "ird": 3384,
  "ander": 3385,
  "\u2581\u0438\u0441\u043a\u0430": 3386,
  "\u2581system": 3387,
  "\u043c\u0435\u043d\u0430": 3388,
  "\u043b\u0438\u044f": 3389,
  "\u2581Uni": 3390,
  "\u2581prefer": 3391,
  "\u2581Tour": 3392,
  "\u25812017,": 3393,
  "\u2581Big": 3394,
  "\u2581\u044f\u0432\u043b\u044f\u0435\u0442\u0441\u044f": 3395,
  "\u2581\u043f\u0440\u0438\u0437\u043d\u0430": 3396,
  "\u0432\u043b\u0435": 3397,
  "\u043b\u0430\u043f": 3398,
  "\u041a\u0410": 3399,
  "\u2581\u0447\u0430\u0441\u0442\u0438": 3400,
  "\u2581(8": 3401,
  "\u2581\u043c\u0435\u0434\u0438": 3402,
  "\u2581\u0447\u0435\u0440": 3403,
  "\u0440\u0430\u043d\u0430": 3404,
  "\u2581\u0442\u0443\u0442": 3405,
  "\u258149": 3406,
  "\u2581\u043d\u0435\u043e\u0431\u0445\u043e\u0434\u0438\u043c\u043e": 3407,
  "\u0433\u043e\u0434\u0438": 3408,
  "\u258195": 3409,
  "\u2581continu": 3410,
  "\u2581\u043f\u043e\u0434\u043e\u0431": 3411,
  "74": 3412,
  "\u2581side": 3413,
  "\u2581Festival": 3414,
  "\u044d\u043c": 3415,
  "\u0436\u0430\u043d": 3416,
  "\u0431\u043b\u0435": 3417,
  "\u2581Cab": 3418,
  "arch": 3419,
  "\u2581\u043e\u043f\u0435\u0440\u0430": 3420,
  "\u043d\u043e\u044e": 3421,
  "\u0432\u0448\u0438": 3422,
  "\u2581one": 3423,
  "\u2581gla": 3424,
  "\u2581prepar": 3425,
  "\u2581\u043a\u043e\u0440\u0438": 3426,
  "\u2581\u0437\u0443": 3427,
  "\u2581ID": 3428,
  "\u2581\u043d\u0430\u0440\u043e\u0434": 3429,
  "46": 3430,
  "\u2581Part": 3431,
  "\u2581Sun": 3432,
  "\u2581actual": 3433,
  "\u2581Grand": 3434,
  "\u2581off": 3435,
  "\u2581\u043a\u0442\u043e": 3436,
  "\u2581activ": 3437,
  "\u2581spe": 3438,
  "\u258156": 3439,
  "\u2581fat": 3440,
  "\u2581bene": 3441,
  "\u0441\u0442\u0440\u0438": 3442,
  "\u043a\u0442\u043e": 3443,
  "\u2581tips": 3444,
  "TM": 3445,
  "\u0432\u0438\u043c": 3446,
  "\u2581\u041e\u0434": 3447,
  "\u2581\u043c\u043e\u0433\u0443\u0442": 3448,
  "\u2581indic": 3449,
  "2-": 3450,
  "\u0434\u043e\u0432\u0438": 3451,
  "\u0440\u043e\u0431": 3452,
  "\u2581\u00a3": 3453,
  "\u2581India": 3454,
  "law": 3455,
  "\u2581One": 3456,
  "\u2581studi": 3457,
  "\u2581\u0427\u0430": 3458,
  "\u2581\u0441\u0432\u0430": 3459,
  "\u0447\u0435\u043d\u0438\u0435": 3460,
  "\u0442\u0430\u043a": 3461,
  "\u2581Bed": 3462,
  "\u2581live": 3463,
  "\u2581exist": 3464,
  "\u043d\u0430\u043b\u0430": 3465,
  "\u25813:": 3466,
  "\u2581\u0441\u043f\u0438": 3467,
  "\u2581700": 3468,
  "\u2581Plus": 3469,
  "91": 3470,
  "\u2581\u043e\u0431\u0438": 3471,
  "\u2581vac": 3472,
  "\u2581\u041a\u043e\u043d": 3473,
  "\u258158": 3474,
  "\u043d\u0438\u043c\u0430": 3475,
  "\u2581(7": 3476,
  "\u2581will": 3477,
  "\u043b\u0430\u043d\u0430": 3478,
  "\u2581Sw": 3479,
  "\u258112,": 3480,
  "\u2581Int": 3481,
  "\u0434\u0430\u043b": 3482,
  "\u2581Ins": 3483,
  "\u2581\u0442\u0435\u0440": 3484,
  "\u2581\u0427\u0438": 3485,
  "\u2581EUR": 3486,
  "\u2581pit": 3487,
  "\u0432\u0430\u043d\u0430": 3488,
  "\u2581\u043e\u0431\u0449\u0435": 3489,
  "\u043e\u0434": 3490,
  "\u2581firm": 3491,
  "\u0442\u043e\u0440\u0430": 3492,
  "SP": 3493,
  "\u258126.": 3494,
  "\u043a\u043e\u0442": 3495,
  "\u2581ideal": 3496,
  "\u0446\u0438\u043e\u043d": 3497,
  "\u2581Set": 3498,
  "\u0442\u0435\u043b\u044f": 3499,
  "ours": 3500,
  "\u2581\u0445\u043e\u0440\u043e": 3501,
  "\u043d\u0435\u0442\u043e": 3502,
  "\u2581sitt": 3503,
  "\u0434\u0435\u0439": 3504,
  "\u044e\u0447\u0438": 3505,
  "\u0432\u044b\u043c": 3506,
  "\u0422\u0418": 3507,
  "\u2581spot": 3508,
  "ged": 3509,
  "\u2581also": 3510,
  "\u043d\u0430\u043c": 3511,
  "\u2581\u0432\u0441\u0435\u0445": 3512,
  "43": 3513,
  "\u043d\u0430\u043b\u0438": 3514,
  "\u2581\u0441\u0440\u0435": 3515,
  "\u043a\u043e\u0432\u0438": 3516,
  "\u2581\u0440\u0430\u0431\u043e": 3517,
  "\u2581histor": 3518,
  "/10": 3519,
  "\u2581\u043d\u0430\u0447\u0438\u043d": 3520,
  "\u2581wid": 3521,
  "\u258131.": 3522,
  "rap": 3523,
  "\u2581\u043f\u043e\u043a\u0430\u0437\u0430": 3524,
  "CI": 3525,
  "49": 3526,
  "\u0437\u0435\u043d": 3527,
  "No": 3528,
  "\u0440\u043e\u043a": 3529,
  ":3": 3530,
  "\u2581August": 3531,
  "\u258141": 3532,
  "\u2019.": 3533,
  "\u0441\u043b\u043e": 3534,
  "\u0422\u041e": 3535,
  "\u0442\u0435\u043b\u044c\u043d\u043e": 3536,
  "\u2581\u0431\u044b\u043b\u0438": 3537,
  "hip": 3538,
  "\u2581medic": 3539,
  "\u043a\u0430\u043c\u0438": 3540,
  "\u043b\u043e\u0433\u0438\u044f": 3541,
  "\u2581\u0442\u0443\u0440": 3542,
  "\u2581\u043a\u043b\u0438": 3543,
  "\u2581\u0437\u0430\u043f\u043e": 3544,
  "\u2581necess": 3545,
  "\u2581LED": 3546,
  "\u2581rug": 3547,
  "\u2581constru": 3548,
  "\u043d\u0435\u0442": 3549,
  "\u2581\u0438\u043b": 3550,
  "\u2581\u0431\u043e\u043b\u044c": 3551,
  "\u2581\u0443\u0437": 3552,
  "\u2581drug": 3553,
  "\u0433\u043b\u0435": 3554,
  "//": 3555,
  "band": 3556,
  "\u043b\u044c\u043d\u044b\u0439": 3557,
  "\u2581its": 3558,
  "Pro": 3559,
  "\u2581\u043a\u043e\u043c\u043f\u0430\u043d\u0438\u0438": 3560,
  "\u043d\u043e\u0442": 3561,
  "\u2581Dev": 3562,
  "\u2581ask": 3563,
  "\u2581won": 3564,
  "aller": 3565,
  "hold": 3566,
  "\u2581\u0444\u043e\u0440\u043c\u0430": 3567,
  "\u2581`": 3568,
  "61": 3569,
  "\u043b\u044b\u043c": 3570,
  "\u043a\u043e\u0433\u043e": 3571,
  "\u2581\u0433\u043e\u0432\u043e\u0440\u0438": 3572,
  "\u2581lar": 3573,
  "\u0436\u0435\u043d\u0438\u044f": 3574,
  "\u2581Samsung": 3575,
  "\u041b\u0418": 3576,
  "\u0441\u043d\u0435": 3577,
  "\u2581\u041b\u0443": 3578,
  "\u2581AT": 3579,
  "\u2581\u043f\u043e\u0437\u043d\u0430": 3580,
  "TER": 3581,
  "erts": 3582,
  "\u2581place": 3583,
  "\u2581\u0437\u0430\u043a\u043e\u043d": 3584,
  "\u043a\u0441\u0438": 3585,
  "\u0432\u0438\u0439": 3586,
  "\u2581West": 3587,
  "\u043b\u0435\u043d\u044b": 3588,
  "\u2581even": 3589,
  "\u00d7": 3590,
  "\u2581(10": 3591,
  "\u2581\u0427\u0435": 3592,
  "\u043b\u0442\u0430": 3593,
  "ises": 3594,
  "\u0437\u043e\u0432\u0430": 3595,
  "\u043d\u0434\u0430\u0440": 3596,
  "enger": 3597,
  "orts": 3598,
  "\u043a\u0440\u0438": 3599,
  "\u0443\u0430": 3600,
  "\u2581Mark": 3601,
  "\u2581\u0447\u0438\u0442\u0430": 3602,
  "\u0439\u043e": 3603,
  "\u258128.": 3604,
  "\u2581Prim": 3605,
  "\u2581International": 3606,
  "\u258111,": 3607,
  "\u258129.": 3608,
  "yal": 3609,
  "\u2581jour": 3610,
  "\u044e\u0449\u0438\u0445": 3611,
  "\u2581Rev": 3612,
  "\u2581inten": 3613,
  "\u2581April": 3614,
  "\u041f\u043e": 3615,
  "\u258152": 3616,
  "\u25815-": 3617,
  "\u0440\u044b\u043c": 3618,
  "\u0432\u0430\u0435\u0442": 3619,
  "\u2581\u043d\u0430\u0448": 3620,
  "\u2581PL": 3621,
  "\u0447\u043d\u0435": 3622,
  "\u2581110": 3623,
  "\u2581\u0432\u043e\u0437": 3624,
  "\u2581National": 3625,
  "\u0434\u0430\u0445": 3626,
  "\u0442\u0442\u0430": 3627,
  "\u2581important": 3628,
  "\u0447\u0435\u043d\u0438\u044f": 3629,
  "\u0436\u043e": 3630,
  "58": 3631,
  "\u258115,": 3632,
  "\u2581130": 3633,
  "2015": 3634,
  "\u2581Let": 3635,
  "\u2581\u043d\u0430\u0441\u0442\u0430": 3636,
  "eff": 3637,
  "\u2581EM": 3638,
  "Ad": 3639,
  "\u2581casino": 3640,
  "\u0443\u0441\u044b": 3641,
  "\u2581nego": 3642,
  "\u0441\u0442\u0430\u0432\u0438": 3643,
  "\u2581\u043e\u0434\u043d\u043e": 3644,
  "\u2581\u043c\u0435\u0441\u0442\u0430": 3645,
  "\u2581\u043a\u0443\u0440": 3646,
  "\u0438\u0442\u0435": 3647,
  "\u2581\u043c\u0430\u0440": 3648,
  "\u0442\u043e\u043d": 3649,
  "\u2581Inn": 3650,
  "\u2581his": 3651,
  "\u2581\u0441\u043e\u0437\u0434\u0430": 3652,
  "\u25812020": 3653,
  "\u0436\u0435\u043d\u0438\u0435": 3654,
  "\u2581nob": 3655,
  "\u0442\u0440\u0435": 3656,
  "\u2581\u0438\u043d\u0442\u0435\u0440\u043d\u0435\u0442": 3657,
  "\u25811999": 3658,
  "\u2581\u043a\u043e\u043c": 3659,
  "\u2581vic": 3660,
  "\u2581fine": 3661,
  "\u2581188": 3662,
  "\u2581Fo": 3663,
  "\u0447\u043a\u043e": 3664,
  "\u0434\u0430\u0439": 3665,
  "\u043f\u0430\u0440": 3666,
  "\u2581like": 3667,
  "\u2581\u0434\u043e\u0440\u043e": 3668,
  "\u2581exp": 3669,
  "\u2581tablet": 3670,
  "\u2581facil": 3671,
  "\u2581You": 3672,
  "\u2581vot": 3673,
  "\u043f\u043e\u043b": 3674,
  "\u0431\u0435\u043d": 3675,
  "\u2581\u0441\u043b\u0435": 3676,
  "\u0442\u0432\u0430": 3677,
  "\u2581\u0437\u0435\u043c": 3678,
  "\u2581standard": 3679,
  "\u2581Fin": 3680,
  "\u043a\u0432\u0438": 3681,
  "\u2581want": 3682,
  "\u2581profession": 3683,
  "ature": 3684,
  "\u2581bill": 3685,
  "\u2581sector": 3686,
  "\u2581Peter": 3687,
  "\u2581ball": 3688,
  "\u2581\u043c\u043e\u0440\u0430": 3689,
  "\u2581speci": 3690,
  "ries": 3691,
  "not": 3692,
  "\u0442\u0438\u0440\u0430": 3693,
  "\u2581\u0440\u0430\u0437\u043b\u0438": 3694,
  "ims": 3695,
  "\u2581\u0434\u043e\u043b": 3696,
  "\u2581\u043d\u043e\u0440\u043c\u0430": 3697,
  "\u2581\u0432\u0435\u0447\u0435": 3698,
  "\u2581digital": 3699,
  "\u258157": 3700,
  "\u2581Bill": 3701,
  "\u2581\u0441\u043b\u0443\u0447\u0430\u0435": 3702,
  "\u0441\u043e\u043c": 3703,
  "\u2581\u043a\u043c": 3704,
  "BC": 3705,
  "\u2581cro": 3706,
  "\u2581SM": 3707,
  "\u2581spo": 3708,
  "\u2581Aber": 3709,
  "\u2581Start": 3710,
  "\u2581\u0441\u0432\u043e\u044e": 3711,
  "\u2581Auto": 3712,
  ":0": 3713,
  "\u0411\u0430": 3714,
  "\u0417\u0430": 3715,
  "\u2581divers": 3716,
  "\u2581\u043e\u043d\u043b\u0430\u0439\u043d": 3717,
  "\u2581cookie": 3718,
  "\u2581sort": 3719,
  "\u2581compar": 3720,
  "\u2581Day": 3721,
  "\u2581\u0442\u0440\u043e": 3722,
  "\u0434\u0438\u043d\u0430": 3723,
  ".).": 3724,
  "\u0432\u0435\u0434": 3725,
  "ental": 3726,
  "\u2581Casino": 3727,
  "\u2581\u043f\u0440\u0435\u0434\u0438": 3728,
  "row": 3729,
  "jec": 3730,
  "\u0447\u043a\u0435": 3731,
  "300": 3732,
  "\u2581\u0444\u0438\u0437\u0438": 3733,
  "\u2581Live": 3734,
  "\u258168": 3735,
  "\u2581Global": 3736,
  "\u2581\u043f\u043e\u0437\u0438": 3737,
  "ware": 3738,
  "\u0446\u0438\u0439": 3739,
  "SM": 3740,
  "\u0434\u0435\u043b\u0438": 3741,
  "ised": 3742,
  "\u2581\u0443\u0441\u0442\u0430": 3743,
  "\u043a\u0430\u0437": 3744,
  "\u0420\u0418": 3745,
  "\u0433\u0435\u0440": 3746,
  "\u0438\u043c": 3747,
  "\u2581press": 3748,
  "\u2581\u0422\u043e\u0432\u0430": 3749,
  "\u043b\u043e\u0442\u043e": 3750,
  "\u2581Cur": 3751,
  "iber": 3752,
  "\u2581\u0440\u0435\u0441\u043f\u0443\u0431\u043b\u0438\u043a\u0430": 3753,
  "\u0430\u0440\u0442": 3754,
  "\u2581160": 3755,
  "ror": 3756,
  "\u2581\u0421\u044a": 3757,
  "\u0441\u0442\u0438\u0442\u0435": 3758,
  "\u2581She": 3759,
  "\u2581\u0441\u043b\u0443": 3760,
  "\u2581review": 3761,
  "ison": 3762,
  "\u0440\u043d\u043e": 3763,
  "\u2581from": 3764,
  "\u0440\u0438\u0439": 3765,
  "\u2581pic": 3766,
  "\u258120,": 3767,
  "\u2581Mr": 3768,
  "\u2581sett": 3769,
  "\u258153": 3770,
  "\u2581\u0428\u0430": 3771,
  "\u043c\u0435\u043d\u0438": 3772,
  "\u2581\u0431\u0430\u0440\u0430": 3773,
  "ADA": 3774,
  "\u258113,": 3775,
  "\u2581\u0433\u0435": 3776,
  "\u2581Dur": 3777,
  "\u0441\u044a": 3778,
  "\u2581\u043d\u0430\u0441\u0435": 3779,
  "\u2581cru": 3780,
  "\u2581\u0431\u0430\u043d": 3781,
  "\u043b\u044c\u043d\u044b\u0435": 3782,
  "\u2581capac": 3783,
  "\u2581\u0443\u0441\u043f\u0435": 3784,
  "oph": 3785,
  "\u2581software": 3786,
  "\u2581idea": 3787,
  "\u2581\u0430\u043a\u0442\u0438\u0432": 3788,
  "xes": 3789,
  "\u2581well": 3790,
  "\u258114,": 3791,
  "\u2581mov": 3792,
  "\u2581mini": 3793,
  "\u2581\u0441\u043f\u0440\u043e": 3794,
  "\u2581\u0441\u0432\u043e\u0439": 3795,
  "\u043a\u0430\u0437\u0430": 3796,
  "\u043a\u0435\u0440": 3797,
  "\u0432\u0435\u0442\u0430": 3798,
  "tern": 3799,
  "jur": 3800,
  "\u2581\u043d\u0430\u0446\u0438\u043e\u043d\u0430": 3801,
  "\u2581strateg": 3802,
  "\u0437\u043d\u043e": 3803,
  "\u2581this": 3804,
  "\u2581\u0438\u043d\u0434\u0435": 3805,
  "\u0447\u0435\u0441\u043a\u043e\u0439": 3806,
  "CO": 3807,
  "\u043d\u0438\u043d": 3808,
  "\u0442\u0430\u0445": 3809,
  "\u2581Not": 3810,
  "\u2581particip": 3811,
  "idel": 3812,
  "\u2581\u0443\u0434\u0430": 3813,
  "\u2581\u043e\u043a\u043e\u043b\u043e": 3814,
  "\u2581Sand": 3815,
  "1%": 3816,
  "\u2581human": 3817,
  "\u2581\u041a\u0440\u0430": 3818,
  "\u2581Wo": 3819,
  "\u0440\u043e\u0432\u0430\u0442\u044c": 3820,
  "\u2581\u0431\u0443\u043b\u043e": 3821,
  "\u258118,": 3822,
  "\u0433\u0440\u0430\u0434": 3823,
  "\u2581\u0420\u0435\u0441\u043f\u0443\u0431\u043b\u0438\u043a\u0430": 3824,
  "\u2581\u043b\u044e\u0434\u0438": 3825,
  "\u2581\u0436\u0438\u0437\u043d\u0438": 3826,
  "\u043d\u0435\u0435": 3827,
  "\u2581\u043f\u043e\u0441": 3828,
  "\u2581\u0433\u0430\u0437": 3829,
  "\u2581\u044d\u0442\u043e\u0439": 3830,
  "\u0430\u043b\u0438": 3831,
  "\u2581that": 3832,
  "\u2581Div": 3833,
  ".\u00bb": 3834,
  "\u2581See": 3835,
  "\u2581\u043c\u043e\u0433\u0443": 3836,
  "\u2581compet": 3837,
  "\u2581\u0441\u0442\u0440\u0430\u043d\u0430": 3838,
  "\u2581\u0438\u0434\u0435": 3839,
  "\u0439\u043b": 3840,
  "\u2581USB": 3841,
  "emes": 3842,
  "\u2581\u044d\u0442\u043e\u0442": 3843,
  "\u0441\u0442\u0432\u0435\u043d": 3844,
  "care": 3845,
  "\u0431\u0430\u0442\u0430": 3846,
  "\u2581\u0438\u0441\u0442\u043e\u0440\u0438": 3847,
  "\u0432\u043a\u0438": 3848,
  "\u0431\u0438\u0440\u0430": 3849,
  "\u0441\u0442\u0440\u0435": 3850,
  "\u2581\u043d\u0435\u0439": 3851,
  "\u2581information": 3852,
  "\u0441\u043a\u0438\u043c": 3853,
  "0.": 3854,
  "\u043b\u043e\u0432\u0438": 3855,
  "\u2581\u043d\u0430\u043f\u0440\u0430": 3856,
  "\u2581\u043e\u0441\u043e": 3857,
  "\u2581determin": 3858,
  "\u2581\u0441\u043a\u043b\u0430": 3859,
  "\u2581tour": 3860,
  "\u0441\u0435\u0440": 3861,
  "\u2581\u0448\u0442\u0430": 3862,
  "fit": 3863,
  "\u0451\u043d": 3864,
  "\u2581\u043e\u043d\u043e": 3865,
  "\u2581\u043d\u0435\u043e": 3866,
  "\u2581\u043e\u043f\u0430": 3867,
  "\u2581\u0434\u0440\u0443\u0433\u0438\u0445": 3868,
  "urn": 3869,
  "\u2581Cy": 3870,
  "\u2581\u043f\u043b\u0430\u043d\u0438": 3871,
  "\u0440\u0438\u0438": 3872,
  "\u0433\u043d\u0430": 3873,
  "\u043a\u0440\u043e": 3874,
  "\u2581hub": 3875,
  "\u2581\u043a\u043e\u043c\u043f\u0430\u043d\u0438\u044f": 3876,
  "\u2581old": 3877,
  "\u2581\u0430\u043c": 3878,
  "\u0412\u0410": 3879,
  "\u2581stre": 3880,
  "\u2581\u041d\u0443": 3881,
  "\u0440\u0434": 3882,
  "\u2581Instagram": 3883,
  "\u043b\u0435\u043d\u043e": 3884,
  "\u2581SC": 3885,
  "\u2581\u0438\u0441\u0442\u0438": 3886,
  "aling": 3887,
  "\u0439\u043d\u0430": 3888,
  "\u2581\u0411\u044b": 3889,
  "\u0433\u043b\u044f": 3890,
  "\u2581\u0432\u044b\u0441\u043e": 3891,
  "\u0448\u043d\u0438": 3892,
  "act": 3893,
  "\u2581\u041f\u0438": 3894,
  "\u043c\u0438\u0440": 3895,
  "\u2581\u043f\u043e\u0447\u0435": 3896,
  "\u2581sand": 3897,
  "\u2581\u0431\u0440\u043e": 3898,
  "\u2581\u043f\u0435\u0440\u0435\u0434": 3899,
  "\u0442\u0438\u043d\u0430": 3900,
  "\u0442\u0438\u0432\u043d\u043e": 3901,
  "\u2581week": 3902,
  "\u2581\u0424\u0438": 3903,
  "\u0448\u0435\u043d\u0438\u0435": 3904,
  "\u2581140": 3905,
  "\u2581\u043f\u0440\u0430\u0432": 3906,
  "ames": 3907,
  "\u041e\u0412": 3908,
  "\u2581limit": 3909,
  "\u043d\u0435\u043d\u0438\u044f": 3910,
  "\u2581\u0431\u0430\u0441": 3911,
  "3%": 3912,
  "\u2581\u0431\u043e\u0440": 3913,
  "\u258116,": 3914,
  "\u2581poss": 3915,
  "\u2581coll": 3916,
  "\u044f\u043c": 3917,
  "\u2581dispos": 3918,
  "\u2581\u0434\u0430\u043d": 3919,
  "\u2581\u043f\u043e\u043b\u0443\u0447\u0430": 3920,
  "BS": 3921,
  "\u0442\u0438\u0435": 3922,
  "\u043e\u0433\u043e": 3923,
  "\u2581\u0431\u0435\u0440\u0443": 3924,
  "\u2581\u043f\u043e\u0434\u043e": 3925,
  "plo": 3926,
  "\u2581County": 3927,
  "\u2581Rob": 3928,
  "\u2581\u0431\u0443\u0439": 3929,
  "\u2581\u0442\u0440\u0443": 3930,
  "\u0432\u0435\u0441\u0442\u0438": 3931,
  "\u042c": 3932,
  "42": 3933,
  "\u2581spa": 3934,
  "\u2581AG": 3935,
  "ction": 3936,
  "\u258119,": 3937,
  "2%": 3938,
  "\u2581Pass": 3939,
  "\u2581WordPress": 3940,
  "\u2581\u043d\u0430\u0447\u0430": 3941,
  "\u2581\u0434\u043e\u0431\u0430": 3942,
  "\u0440\u044c": 3943,
  "\u258166": 3944,
  "CE": 3945,
  "\u258150%": 3946,
  "\u2581direc": 3947,
  "\u0440\u043e\u0439": 3948,
  "ension": 3949,
  "\u2581\u0420\u0424": 3950,
  "bus": 3951,
  "\u2581\u0433\u0430\u0440": 3952,
  "\u2581\u043b\u0438\u0446\u0430": 3953,
  "\u0447\u0430\u043d": 3954,
  "\u258198": 3955,
  "\u0436\u0438\u043b": 3956,
  "\u2581hund": 3957,
  "\u0433\u043e\u0432\u043e": 3958,
  "\u0434\u0440\u043e": 3959,
  "\u2581multi": 3960,
  "\u2581\u0441\u0430\u043c\u0430": 3961,
  "\u2581\u0434\u043d\u044f": 3962,
  "rian": 3963,
  "CA": 3964,
  "\u0441\u043a\u0438\u0435": 3965,
  "\u0446\u0438\u043e\u043d\u0430": 3966,
  "\u2581\u043f\u043e\u043b\u0443": 3967,
  "\u2581\u0430\u0441": 3968,
  "\u2581typ": 3969,
  "\u2581\u043e\u0440\u0433\u0430": 3970,
  "\u2581marketing": 3971,
  "-201": 3972,
  "\u2581\u043a\u0430\u0437\u0430": 3973,
  "\u2581\u043a\u0440\u0435": 3974,
  "\u043d\u044d": 3975,
  "\u2581\u0434\u0440\u0443\u0433\u0430": 3976,
  "-15": 3977,
  "\u2581CC": 3978,
  "plic": 3979,
  "\u2581\u0434\u043e\u0431\u0440\u043e": 3980,
  "pli": 3981,
  "\u0442\u0430\u043c\u0438": 3982,
  "\u2581Mill": 3983,
  "\u2581\u0442\u044f": 3984,
  "\u2581Play": 3985,
  "79": 3986,
  "-11": 3987,
  "\u041a\u0430": 3988,
  "\u2581\u0447\u0435\u043b\u043e\u0432\u0435\u043a": 3989,
  "onal": 3990,
  "\u2581London": 3991,
  "\u044b\u0433": 3992,
  "\u258178": 3993,
  "\u2581club": 3994,
  "\u2581\u043f\u043e\u0432\u0435": 3995,
  "aker": 3996,
  "\u0442\u0435\u0440\u0430": 3997,
  "/1": 3998,
  "\u043a\u043b\u044e": 3999,
  "\u2581sho": 4000,
  "\u0448\u0438\u043c": 4001,
  "\u043c\u044b\u043d": 4002,
  "\u0437\u043d\u0430\u0447\u0430": 4003,
  "\u2581polic": 4004,
  "ging": 4005,
  "\u2581\u0436\u0435\u0440": 4006,
  "\u0438\u0437": 4007,
  "\u043a\u0438\u043c": 4008,
  "\u2581hard": 4009,
  "\u0414\u0410": 4010,
  "\u2581\u0411\u0435\u0440": 4011,
  "\u2581\u0441\u0432\u0438": 4012,
  "\u2581\u043c\u043b\u043d": 4013,
  "\u2581Robert": 4014,
  ".),": 4015,
  "\u2581USD": 4016,
  "ated": 4017,
  "\u25812016,": 4018,
  "ells": 4019,
  "\u0442\u0438\u0439": 4020,
  "\u2581France": 4021,
  "\u2581\u0416\u0438": 4022,
  "\u2581System": 4023,
  "\u0442\u0435\u043b\u0435\u0439": 4024,
  "cri": 4025,
  "\u0420\u041e": 4026,
  "tain": 4027,
  "\u0433\u043b\u0438": 4028,
  "\u2581\u0441\u0430\u043c\u0438": 4029,
  "\u2581\u043e\u0431\u043b\u0430": 4030,
  "\u2581Forum": 4031,
  "\u0432\u044b\u0439": 4032,
  "69": 4033,
  "bro": 4034,
  "\u0441\u043f\u0430": 4035,
  "\u0432\u043e\u0440": 4036,
  "\u2581\u0438\u0437\u0434\u0430": 4037,
  "\u2581fix": 4038,
  "\u2581MS": 4039,
  "\u2581\u0434\u043e\u0441\u0442\u0430": 4040,
  "\u2581elev": 4041,
  "\u0434\u0435\u043d\u0438": 4042,
  "\u2581\u0432\u0438\u0434": 4043,
  "\u043b\u043a\u0430": 4044,
  "\u2581Center": 4045,
  "\u2581\u043f\u0440\u0435\u0434\u0441\u0442\u0430\u0432\u0438": 4046,
  "\u2581\u0434\u0440": 4047,
  "\u0436\u043d\u0438": 4048,
  "ack": 4049,
  "Fi": 4050,
  "\u0432\u0430\u0435": 4051,
  "\u25811998": 4052,
  "\u2581Lar": 4053,
  "\u2581into": 4054,
  "\u2581\u041f\u0443": 4055,
  "3-": 4056,
  "\u2581ring": 4057,
  "\u0445\u043e\u0434\u0438": 4058,
  "\u043a\u0430\u044f": 4059,
  "\u2581\u0438\u0440": 4060,
  "\u2581\u0421\u0442\u043e": 4061,
  "\u043c\u0438\u043d": 4062,
  "\u2581\u041a\u0430\u0440": 4063,
  "\u2581apart": 4064,
  ":4": 4065,
  "INI": 4066,
  "\u043f\u0438\u0441\u0430": 4067,
  "\u2581Mc": 4068,
  "\u2581rub": 4069,
  "\u0430\u043b\u044c\u043d\u043e": 4070,
  "\u2581\u0433\u043e\u043b\u043e": 4071,
  "\u2581\u043f\u043e\u043b\u0435": 4072,
  "Th": 4073,
  "\u258151": 4074,
  "\u2581SEO": 4075,
  "\u2581period": 4076,
  "\u2581\u041d\u0430\u0439": 4077,
  "\")": 4078,
  "\u2581expl": 4079,
  "imes": 4080,
  "\u2581show": 4081,
  "\u2581\u043a\u0430\u0431": 4082,
  "\u041c\u0410": 4083,
  "\u2581\u043d\u0435\u043f\u043e": 4084,
  "\u2581promo": 4085,
  "\u2581news": 4086,
  "\u0432\u043e\u0434\u0438": 4087,
  "\u0431\u044f": 4088,
  "\u044f\u0437": 4089,
  "\u0442\u0440": 4090,
  "\u2581\u0432\u0443": 4091,
  "\u0432\u043e\u0440\u0435": 4092,
  "\u041c\u0430": 4093,
  "\u2581\u043c\u043e\u043c\u0435\u043d\u0442": 4094,
  "\u0432\u043e\u0435": 4095,
  "uls": 4096,
  "\u258117,": 4097,
  "\u2581kind": 4098,
  "\u043a\u0440\u0435": 4099,
  "\u2581\u043a\u043e\u0440": 4100,
  "\u2581\u0442\u043e\u0440": 4101,
  "\u0448\u043d\u043e": 4102,
  "\u258172": 4103,
  "\u2581\u043f\u0440\u043e\u0431\u043b\u0435\u043c": 4104,
  "\u2581\u0438\u043d\u0442\u0435\u0440\u0435": 4105,
  "\u0447\u0435\u0441\u043a\u0438\u0435": 4106,
  "\u2581\u0434\u043e\u0437\u0432\u043e": 4107,
  "\u2581\u043f\u0435\u043d": 4108,
  "\u2581\u0443\u0447\u0438": 4109,
  "\u2581represent": 4110,
  "\u2581\u043a\u0440\u043e": 4111,
  "ICA": 4112,
  "\u2581Group": 4113,
  "/2": 4114,
  "\u2581\u0411\u0430\u0439": 4115,
  "\u2581\u043f\u0440\u0435\u0434\u043b\u0430\u0433\u0430": 4116,
  "\u258188": 4117,
  "\u0441\u0441": 4118,
  "tage": 4119,
  "\u0434\u0438\u044f": 4120,
  "\u2581conven": 4121,
  "\u258167": 4122,
  "ney": 4123,
  "\u2581\u0430\u0442": 4124,
  "\u2581Under": 4125,
  "\u043b\u043a\u0438": 4126,
  "\u2581\u043e\u0442\u043a\u0440\u044b": 4127,
  "62": 4128,
  "\u043b\u0434\u0435": 4129,
  "\u0442\u0438\u0442\u044c": 4130,
  "\u2581\u043f\u0438\u0441\u0430": 4131,
  "\u2581imm": 4132,
  "\u2581\u0430\u043f": 4133,
  "\u2581Service": 4134,
  "\u2581United": 4135,
  "\u2581cultural": 4136,
  "\u2581\u0441\u0430\u043d": 4137,
  "\u2581\u0441\u0432\u044f": 4138,
  "\u2581\u043b\u044e": 4139,
  "\u042e": 4140,
  "\u2581\u0431\u0443\u0434\u0443\u0442": 4141,
  "\u2581English": 4142,
  "\u0433\u043d\u0443": 4143,
  "\u2581util": 4144,
  "41": 4145,
  "\u0433\u043d\u0435": 4146,
  "\u0444\u043e\u0440": 4147,
  "\u041a\u041e": 4148,
  "\u2581\u0438\u043c\u0435\u043d\u043d\u043e": 4149,
  "\u0442\u0435\u0440\u0435": 4150,
  "\u2581\u041a\u0435": 4151,
  "\u2581\u0437\u043d\u0430\u0447\u0438": 4152,
  "\u2581consum": 4153,
  "\u2581\u043e\u043a\u043e": 4154,
  "\u2581\u0430\u043b\u044b": 4155,
  "\u2581Rel": 4156,
  "\u2581\u0442\u0435\u0445": 4157,
  "\u2581plant": 4158,
  "\u043f\u0430\u0434": 4159,
  "\u2581SMS": 4160,
  "\u2581Kit": 4161,
  "\u2581\u0442\u0432\u043e\u0440": 4162,
  "\u2581General": 4163,
  "\u2581capital": 4164,
  "\u043c\u043e\u0442": 4165,
  "\u043b\u043e\u0442": 4166,
  "bles": 4167,
  "\u2581Hall": 4168,
  "\u2581secret": 4169,
  "\u0441\u0442\u0432\u043e\u043c": 4170,
  "ipe": 4171,
  "\u2581900": 4172,
  "\u2581Sec": 4173,
  "\u0442\u0430\u043f": 4174,
  "\u0436\u0430\u0442": 4175,
  "DS": 4176,
  "\u2581\u043f\u043e\u0441\u043b\u0435\u0434": 4177,
  "\u2581\u0431\u0443\u0442\u0438": 4178,
  "\u2581cod": 4179,
  "\u0437\u0438\u044f": 4180,
  "\u2581sist": 4181,
  "\u2581Long": 4182,
  "\u0441\u0430\u0434": 4183,
  "\u0441\u0442\u0432\u0438\u0435": 4184,
  "\u25811990": 4185,
  "\u043b\u044c\u043d\u0438\u0439": 4186,
  "\u2581\u0441\u0442\u0440\u043e": 4187,
  "\u2581Liv": 4188,
  "\u0442\u0443\u0440\u0438": 4189,
  "\u2581Lev": 4190,
  "ating": 4191,
  "\u0432\u0430\u0442\u0435": 4192,
  "\u043e\u043b\u043e": 4193,
  "ening": 4194,
  "\u0440\u044f\u0434": 4195,
  "\u2581complet": 4196,
  "63": 4197,
  "\u2581Michael": 4198,
  "\u2581central": 4199,
  "\u2581\u0420\u0438": 4200,
  "\u041f\u0440\u043e": 4201,
  "\u2581Cont": 4202,
  "\u2581\u0431\u043b\u0430\u0433\u043e": 4203,
  "\u2581rid": 4204,
  "\u25812-3": 4205,
  "\u2581\u044d\u0442\u0430": 4206,
  "\u2581\u0438\u043d\u0441\u0442\u0438\u0442\u0443": 4207,
  "ember": 4208,
  "\u2581\u041f\u0435\u0442": 4209,
  "\u0431\u0440\u0438": 4210,
  "edy": 4211,
  "\u25812,5": 4212,
  "\u0420\u0415": 4213,
  "\u0433\u043e\u0434": 4214,
  "\u2581\u0430\u0440\u0430": 4215,
  "\u0442\u0440\u0443": 4216,
  "\u0442\u043a\u0443": 4217,
  "\u0440\u0430\u0434": 4218,
  "\u258199": 4219,
  "\u2581\u0441\u043e\u0431\u0441\u0442\u0432\u0435\u043d": 4220,
  "57": 4221,
  "\u2581send": 4222,
  "\u043a\u0443\u043f": 4223,
  "\u2581\u044d\u0440": 4224,
  "\u0447\u0435\u0441\u043a\u043e\u0433\u043e": 4225,
  ":1": 4226,
  "\u2581Stud": 4227,
  "\u2581\u043d\u0430\u043f\u0440\u0430\u0432\u0438": 4228,
  "\u2581\u0441\u0438\u0442\u0443\u0430": 4229,
  "\u0448\u0442\u0438": 4230,
  "\u2581\u0441\u0440\u0435\u0434\u0441\u0442\u0432\u0430": 4231,
  "\u0448\u0438\u0439": 4232,
  "\u2581\u0443\u0447\u0430": 4233,
  "\u2581global": 4234,
  "cess": 4235,
  "\u2581\u043c\u0430\u043b\u043e": 4236,
  "\u2581ago": 4237,
  "\u043d\u043e\u0441\u0438": 4238,
  "\u2581influ": 4239,
  "\u2581DVD": 4240,
  "\u2581Galaxy": 4241,
  "\u2581\u043d\u0435\u0441\u043a\u043e\u043b\u044c\u043a\u043e": 4242,
  "\u2581Anti": 4243,
  "\u2581\u043f\u0440\u043e\u0435\u043a\u0442": 4244,
  "\u2581AV": 4245,
  "\u0431\u0440\u043e": 4246,
  "\u2581Fac": 4247,
  "\u2581your": 4248,
  "\u0434\u0440\u0443": 4249,
  "ness": 4250,
  "\u2581GR": 4251,
  "ful": 4252,
  "\u2581\u043b\u044e\u0431\u0438": 4253,
  "\u2581\u0410\u0434": 4254,
  "\u2581dut": 4255,
  "\u2581\u0434\u0435\u043b\u043e": 4256,
  "\u043f\u0435\u0440\u0430": 4257,
  "\u2581\u0445\u0430\u043d": 4258,
  "\u25811980": 4259,
  "\u2581eventu": 4260,
  "\u0440\u0430\u0431\u043e": 4261,
  "\u2581\u043a\u043e\u0442\u043e\u0440\u044b\u0445": 4262,
  "\u043b\u0430\u043d\u044b": 4263,
  "\u2581\u043a\u043e\u043c\u043f\u043b\u0435\u043a": 4264,
  "\u2581\u0432\u044f": 4265,
  "ints": 4266,
  "\u2581diverse": 4267,
  "\u0447\u0435\u0442\u0430": 4268,
  "\u2581\u043f\u0440\u043e\u0432\u0435": 4269,
  "\u0433\u0430\u043b": 4270,
  "\u25813.0": 4271,
  "\u2581Rem": 4272,
  "\u2581\u043e\u0431\u0443": 4273,
  "\u043a\u043b\u043e": 4274,
  "hib": 4275,
  "\u044e\u0449\u0438\u0435": 4276,
  "\u2581\u0432\u0441\u0435\u0433\u0434\u0430": 4277,
  "2014": 4278,
  "\u0433\u0440\u0435": 4279,
  "\u2581\u0437\u0430\u0434\u0430": 4280,
  "\u0441\u0438\u044f": 4281,
  "\u2581Design": 4282,
  "\u043d\u0435\u0446": 4283,
  "\u2581\u0427\u0435\u0440": 4284,
  "\u2581flu": 4285,
  "list": 4286,
  "\u0441\u0442\u0443\u043f": 4287,
  "\u2581\u043e\u0431\u0435": 4288,
  "\u2581\u0434\u043e\u0441\u0442\u0443\u043f": 4289,
  "Ex": 4290,
  "\u2581\u043d\u0430\u0448\u0435": 4291,
  "\u043b\u043a\u0443": 4292,
  "\u0442\u0438\u043c": 4293,
  "\u2581XIX": 4294,
  "\u0440\u043e\u0432\u0430\u043d": 4295,
  "\u2581sell": 4296,
  "\u2581\u0441\u043c": 4297,
  "\u043d\u043e\u0432\u0435": 4298,
  "\u2581\u0441\u0438\u0441\u0442\u0435\u043c": 4299,
  "\u2581\u0441\u0432\u043e\u0431\u043e": 4300,
  "\u2581centre": 4301,
  "\u2581\u0441\u0430\u0439\u0442\u0430": 4302,
  "\u25812015,": 4303,
  "?)": 4304,
  "\u0441\u0438\u0442\u0435": 4305,
  "\u2581brand": 4306,
  "\u2581tex": 4307,
  "73": 4308,
  "\u2581Wil": 4309,
  "\u043c\u043e\u0432\u0438": 4310,
  "\u2581\u043a\u043d\u0438": 4311,
  "\u0434\u044c": 4312,
  "aps": 4313,
  "key": 4314,
  "\u2581gym": 4315,
  "ury": 4316,
  "\u043b\u0435\u043f": 4317,
  "\u2581UK": 4318,
  "\u2581\u0444\u0443\u043d\u043a": 4319,
  "\u2581relativ": 4320,
  "\u043c\u0435\u043d\u0442\u0438": 4321,
  "\u2581equip": 4322,
  "\u2581Oper": 4323,
  "\u258110-": 4324,
  "\u0437\u0435\u0440": 4325,
  "\u2581now": 4326,
  "\u2581(\"": 4327,
  "\u043a\u043e\u044e": 4328,
  "\u2581\u0432\u043e\u0442": 4329,
  "\u2581CR": 4330,
  "\u2581direct": 4331,
  "\u0444\u0435\u0440": 4332,
  "PL": 4333,
  "iling": 4334,
  "\u2581\u044d\u0442\u0438": 4335,
  "\u0437\u043d\u0435": 4336,
  "\u2581simple": 4337,
  "\u0447\u0435\u043c": 4338,
  "\u043d\u0435\u043d\u0438\u0435": 4339,
  "\u2581\u0440\u0435\u0437\u0443\u043b\u044c\u0442\u0430": 4340,
  "\u2581\u0430\u0437": 4341,
  "\u258110%": 4342,
  "\u0434\u043e\u0442": 4343,
  "DR": 4344,
  "tech": 4345,
  "ops": 4346,
  "59": 4347,
  "\u2581Tw": 4348,
  "\u2581\u0442\u0435\u0437\u0438": 4349,
  "\u2581numero": 4350,
  "\u2581\u0441\u043f\u0435": 4351,
  "\u0445\u0435": 4352,
  "\u2581\u043c\u0435\u0441\u0442": 4353,
  "\u2581\u0441\u043a\u043e\u0440\u043e": 4354,
  "\u0449\u0443": 4355,
  "\u043b\u0430\u0442": 4356,
  "\u2581ful": 4357,
  "\u0447\u043d\u044b": 4358,
  "IX": 4359,
  "\u043b\u043e\u0432\u0430": 4360,
  "\u2581interven": 4361,
  "\u2581new": 4362,
  "\u043c\u0430\u043b": 4363,
  "\u0432\u0438\u0447": 4364,
  "olet": 4365,
  "pass": 4366,
  "\u2581\u043f\u0440\u043e\u0442\u0435": 4367,
  "\u2581\u043d\u0430\u0434\u043e": 4368,
  "\u043c\u0435\u0439": 4369,
  "\u2581FOR": 4370,
  "\u2581Site": 4371,
  "\u0432\u0430\u0432": 4372,
  "\u2581Open": 4373,
  "\u0442\u0442\u0435": 4374,
  "\u0434\u043e\u043b": 4375,
  "\u2581\u0432\u043e\u0434\u0438": 4376,
  "72": 4377,
  "\u043d\u0435\u0448": 4378,
  "\u258159": 4379,
  "empl": 4380,
  "\u2581comm": 4381,
  "\u0432\u043b\u0435\u043d\u0438\u044f": 4382,
  "\u0436\u0438\u0432\u0430": 4383,
  "\u043d\u0430\u043c\u0438": 4384,
  "\u2581\u041f\u043e\u0434": 4385,
  "\u2581\u043e\u0432\u0430": 4386,
  "\u2581\u043a\u043e\u0442\u043e\u0440\u0430\u044f": 4387,
  "\u2581\u0413\u0440\u0430": 4388,
  "\u2581\u0432\u044b\u0440\u0430": 4389,
  "put": 4390,
  "\u2581\u0442\u0435\u0445\u043d\u0438": 4391,
  "\u2581\u0416\u0430": 4392,
  "\u0439\u0442\u0438": 4393,
  "\u2581\u0430\u043d\u0442\u0438": 4394,
  "\u2581\u0437\u0430\u043d\u044f": 4395,
  "\u2581\u043f\u043e\u0442": 4396,
  "tics": 4397,
  "\u25811997": 4398,
  "\u2581\u0441\u0432\u043e\u0438": 4399,
  "400": 4400,
  "\u0441\u0442\u043e\u044f": 4401,
  "\u2581Power": 4402,
  "\u2581Alex": 4403,
  "\u2581\u0438\u043d\u0444\u043e\u0440\u043c\u0430\u0446\u0438\u044f": 4404,
  "\u0442\u0430\u0440\u0430": 4405,
  "\u043a\u0442\u043e\u0440": 4406,
  "part": 4407,
  "\u2581\u0437\u0430\u043a\u043e": 4408,
  "\u041e\u0420": 4409,
  "56": 4410,
  "\u2581\u043e\u0441\u043d\u043e\u0432": 4411,
  "\u2581recep": 4412,
  "\u0440\u0435\u0442": 4413,
  "TC": 4414,
  "\u2581170": 4415,
  "\u2581\u0441\u043f\u0435\u0446\u0438": 4416,
  "89": 4417,
  "\u2581\u043a\u043e\u0434": 4418,
  "\u0437\u0438\u043d": 4419,
  "\u0437\u043c\u0430": 4420,
  "600": 4421,
  "\u0434\u043e\u043a": 4422,
  "\u25816-": 4423,
  "oved": 4424,
  "eding": 4425,
  "kn": 4426,
  "\u043f\u0430\u0434\u0430": 4427,
  "\u2581park": 4428,
  "\u044d\u043d\u0434": 4429,
  "bs": 4430,
  "\u2581ident": 4431,
  "\u2581\u0436\u0435\u043b\u0430": 4432,
  "\u2581Char": 4433,
  "\u2581\u043c\u0435\u043d\u0435": 4434,
  "\u0432\u0435\u043d\u0438": 4435,
  "\u2581\u043f\u0440\u0430\u0437": 4436,
  "\u2581\u043b\u0443": 4437,
  "usion": 4438,
  "\u0435\u0437": 4439,
  "\u0437\u0438\u0440\u0430": 4440,
  "\u2581\u0421\u0428\u0410": 4441,
  "\u2581James": 4442,
  "\u0440\u0438\u043b": 4443,
  "\u2581\u0443\u0441\u043b\u0443\u0433\u0438": 4444,
  "\u0415\u0420": 4445,
  "\u2581\u043a\u0430\u0434\u0430": 4446,
  "\u2581number": 4447,
  "\u258177": 4448,
  "\u2581Thomas": 4449,
  "\u0433\u043e\u0440": 4450,
  "\u0441\u043d\u044b": 4451,
  "\u2581possible": 4452,
  "\u043f\u0440\u0430\u0432": 4453,
  "\u2581\u043f\u0440\u043e\u0435\u043a": 4454,
  "\u2581Clar": 4455,
  "4-": 4456,
  "arts": 4457,
  "-16": 4458,
  "\u2581\u0443\u043d\u0438": 4459,
  "\u2581\u043e\u043f\u0438": 4460,
  "\u041e\u0414": 4461,
  "ashi": 4462,
  "\u043e\u0431\u0440\u0430": 4463,
  "\u2581\u0434\u0435\u0442": 4464,
  "book": 4465,
  "\u0441\u0442\u0440\u0443": 4466,
  "\u2581\u0431\u0435\u0440\u0435": 4467,
  "\u0432\u0430\u0445": 4468,
  "\u2581\u0441\u0430\u0440\u0430": 4469,
  "\u2581\u043f\u0435\u0440\u0438\u043e\u0434": 4470,
  "\u2581\u043d\u0430\u0440\u043e": 4471,
  "fy": 4472,
  "\u2581University": 4473,
  "\u25811920": 4474,
  "\u2581\u0446\u0435\u043d\u0442\u0440\u0430": 4475,
  "\u25811970": 4476,
  "\u043f\u043b\u043e": 4477,
  "\u2581\u0432\u0430\u0436": 4478,
  "\u2581\u0448\u043a\u043e": 4479,
  "\u2581document": 4480,
  "\u0451\u043c": 4481,
  ",-": 4482,
  "\u0432\u0430\u0435\u0442\u0441\u044f": 4483,
  "\u2581format": 4484,
  "\u2581\u0432\u0440\u0435\u043c\u0435\u043d\u0438": 4485,
  "\u0444\u0438\u0446\u0438": 4486,
  "\u043a\u0442\u0435": 4487,
  "\u2581High": 4488,
  "\u2581\u043d\u0438\u043a\u0430": 4489,
  "\u2581civil": 4490,
  "\u2581\u0441\u043f\u043e\u0441\u043e\u0431": 4491,
  "-17": 4492,
  "\u2581\u0422\u0435\u043a\u0441\u0442": 4493,
  "\u2581Public": 4494,
  "\u2581\u0431\u043e\u043b\u044c\u0448": 4495,
  "\u2581\u0411\u0435\u043b\u0430\u0440\u0443\u0441\u044c": 4496,
  "\u2581inde": 4497,
  "\u2581\u043f\u0440\u0435\u0442": 4498,
  "\u2581\u0441\u043b\u043e\u0432\u0430": 4499,
  "\u2581\u0432\u0438\u0441\u043e": 4500,
  "\u0448\u0435\u043d\u0438\u044f": 4501,
  "\u2581\u0438\u043d\u0442\u0435\u0440": 4502,
  "\u2581result": 4503,
  "\u2581\u0437\u0434\u0430": 4504,
  "\u2581\u0433\u0440\u0438": 4505,
  "\u2581\u0434\u0440\u0443\u0433\u043e": 4506,
  "\u0447\u0438\u0442\u0435": 4507,
  "\u2581\u043f\u043e\u0447": 4508,
  "\u2581\u043e\u0439": 4509,
  "\u2581cou": 4510,
  "\u2581\u043e\u0440\u0433\u0430\u043d\u0438": 4511,
  "\u2581sea": 4512,
  "\":": 4513,
  "\u0430\u043b\u0430": 4514,
  "OF": 4515,
  "\u0448\u0430\u044f": 4516,
  "\u2581\u0432\u043a\u043b\u044e": 4517,
  "ices": 4518,
  "\u2581YouTube": 4519,
  "\u2581comment": 4520,
  "\u25811960": 4521,
  "\u2581\u0431\u0438\u0437\u043d\u0435\u0441": 4522,
  "\u0447\u0435\u0440": 4523,
  "\u2581350": 4524,
  "\u043b\u043e\u0432\u0435": 4525,
  "\u2581\u0434\u0435\u043b": 4526,
  "\u2581\u0432\u043e\u0434\u0430": 4527,
  "\u0443\u043c": 4528,
  "MS": 4529,
  "\u043b\u044c\u043d\u0438\u0445": 4530,
  "\u2581\u044d\u043a": 4531,
  "\u0413\u0410": 4532,
  "\u2581Office": 4533,
  "\u258130-": 4534,
  "\u2581\u043d\u0435\u0437\u0430": 4535,
  "omin": 4536,
  "\u041d\u0415": 4537,
  "\u0432\u043b\u0435\u043d\u0438\u0435": 4538,
  "\u2581asp": 4539,
  "hes": 4540,
  "\u2581\u0448\u043e": 4541,
  "\u2581\u043f\u043e\u043d\u044f": 4542,
  "\u2581\u0437\u0430\u0433\u0430": 4543,
  "\u2581Over": 4544,
  "\u2581\u041f\u043e\u0441\u043b\u0435": 4545,
  "ards": 4546,
  "\u258163": 4547,
  "\u0441\u043e\u0432\u0430": 4548,
  "\u2581\u0443\u043f\u0440\u0430": 4549,
  "\u2581\u0440\u0430\u0431\u043e\u0442": 4550,
  "\u043b\u0438\u0437\u0430": 4551,
  "\u043c\u043e\u0439": 4552,
  "\u2581\u0436\u0430\u043d": 4553,
  "\u2581\u043f\u0440\u0430\u043a\u0442\u0438": 4554,
  "\u043f\u0438\u0442\u0430": 4555,
  "\u0447\u043a\u0443": 4556,
  "\u2581\u043e\u0442\u0434\u0435": 4557,
  "\u2581\u0413\u0435": 4558,
  "\u2581\u0442\u0430\u043a\u0438\u0445": 4559,
  "\u2581\u041b\u044e": 4560,
  "\u2581\u0431\u0430\u043d\u043a": 4561,
  "back": 4562,
  "\u2581Most": 4563,
  "\u2581\u0438\u043d\u0444\u043e\u0440\u043c\u0430\u0446\u0438\u0438": 4564,
  "\u2581Cup": 4565,
  "\u2581run": 4566,
  "\u0433\u0438\u044f": 4567,
  "\u043d\u0435\u0442\u0435": 4568,
  "\u2581\u0434\u0430\u043d\u0430": 4569,
  "tors": 4570,
  "off": 4571,
  "\u2581\u041f\u0435\u0440\u0435": 4572,
  "ried": 4573,
  "\u2581said": 4574,
  "fort": 4575,
  "\u2581ext": 4576,
  "\u0447\u0438\u0442\u044c": 4577,
  "\u258162": 4578,
  "\u2581original": 4579,
  "\u2581\u0442\u0430\u043a\u043e\u0439": 4580,
  "PC": 4581,
  "\u043b\u044c\u043d\u0430\u044f": 4582,
  "\u2581\u043f\u043e\u043c\u043e": 4583,
  "\u2581associ": 4584,
  "\u2581\u0447\u0430\u0441\u0442\u043e": 4585,
  "\u2581\u043c\u043e\u043b\u043e": 4586,
  "\u2581\u0444\u0435": 4587,
  "\u2581\u0443\u0441\u043b\u043e\u0432\u0438": 4588,
  "\u2581terra": 4589,
  "\u2581Mid": 4590,
  "As": 4591,
  "\u0442\u0443\u0440\u044b": 4592,
  "\u043b\u0438\u043d\u0430": 4593,
  "\u2581\u0415\u0432\u0440\u043e\u043f\u0430": 4594,
  "\u2581origin": 4595,
  "\u2581student": 4596,
  "\u2581\u0413\u0440\u0443": 4597,
  "\u2581sale": 4598,
  "\u0442\u044b\u0440": 4599,
  "%)": 4600,
  "\u0434\u0443\u0432\u0430": 4601,
  "\u044f\u0440": 4602,
  "\u043c\u043e\u043d": 4603,
  "\u043d\u0435\u0440\u0430": 4604,
  "\u0433\u0430\u0440": 4605,
  "\u2581\u041c\u0435\u043d": 4606,
  "\u2581home": 4607,
  "\u0433\u043b\u043e": 4608,
  "\u043a\u0438\u0435": 4609,
  "\u2581iOS": 4610,
  "\u2581\u0434\u043e\u0441\u0442\u0438": 4611,
  "\u0441\u043d\u044f": 4612,
  "\u2581\u043b\u0443\u0447\u0448\u0435": 4613,
  "\u2581Green": 4614,
  "\u0441\u0442\u0432": 4615,
  "\u0432\u044f\u0442": 4616,
  "\u0442\u0435\u043a": 4617,
  "\u2581\u043b\u043e\u043a\u0430": 4618,
  "\u2581Tech": 4619,
  "\u2581\u043a\u043e\u043b\u0435": 4620,
  "\u0437\u043e\u0440": 4621,
  "\u258169": 4622,
  "\u2581\u0441\u0442\u0430\u043d": 4623,
  "\u2581\u0424\u0440\u0430\u043d": 4624,
  "\u258120-": 4625,
  "\u2581\u041b\u043e": 4626,
  "\u0434\u0430\u0432\u0430": 4627,
  "\u25811996": 4628,
  "\u0449\u0438\u0442\u0435": 4629,
  "\u2581\u0442\u0435\u043a": 4630,
  "\u044e\u0449\u0438\u0439": 4631,
  "\u043d\u0430\u043b\u044c": 4632,
  "\u2581educ": 4633,
  "\u2581\u0440\u0435\u0441\u0443\u0440": 4634,
  "\u0437\u0430\u0440": 4635,
  "54": 4636,
  "\u2581\u0442\u0440": 4637,
  "ited": 4638,
  "\u2581job": 4639,
  "\u0437\u0432\u043e": 4640,
  "\u2581\u0441\u0432\u043e": 4641,
  "\u2581\u043d\u0430\u043f\u043e": 4642,
  "\u2581particular": 4643,
  "\u25811995": 4644,
  "\u0433\u0434\u0430": 4645,
  "\u2581Spe": 4646,
  "\u0431\u043e\u0440\u0430": 4647,
  "\u258122,": 4648,
  "\u043b\u0430\u043b": 4649,
  "\u2581sense": 4650,
  "\u2581Pay": 4651,
  "rus": 4652,
  "\u0434\u0436": 4653,
  "\u2581\u043f\u043b\u0430\u043d": 4654,
  "\u2581\u043f\u0440\u043e\u0433\u0440\u0430\u043c": 4655,
  "\u043a\u0430\u0439": 4656,
  "\u2581Life": 4657,
  "\u2581\u0433\u0440\u0435": 4658,
  "\u2581\u043c\u0430\u0440\u0442": 4659,
  "\u0440\u0433": 4660,
  "\u2581use": 4661,
  "\u2581\u0430\u0432\u0442\u043e\u0440": 4662,
  "\u25811/": 4663,
  "\u043b\u0435\u0443": 4664,
  "\u0447\u0435\u043d\u043e": 4665,
  "\u044d\u0439": 4666,
  "\u2581reform": 4667,
  "\u0441\u0442\u0440": 4668,
  "\u2581\u0437\u0430\u043d\u0438\u043c\u0430": 4669,
  "\u2581monitor": 4670,
  "\u2581\u043e\u0447\u0438": 4671,
  "\u2581arch": 4672,
  "\u2581\u0432\u043b\u0430\u0441\u0442\u0438": 4673,
  "\u2581open": 4674,
  "\u2581\u0432\u0438\u0434\u0435": 4675,
  "\u2581\u0424\u0435": 4676,
  "\u2581file": 4677,
  "ked": 4678,
  "cky": 4679,
  "\u043a\u0443\u044e": 4680,
  "-9": 4681,
  "\u0426\u0418": 4682,
  "\u2581help": 4683,
  "\u258125,": 4684,
  "box": 4685,
  "\u2581\u043d\u0430\u043c\u0430": 4686,
  "\u00bb:": 4687,
  "\u2581quali": 4688,
  "\u2581team": 4689,
  "\u2581But": 4690,
  "\u2581\u043a\u043e\u043c\u0443": 4691,
  "\u2581metal": 4692,
  "\u2581\u043f\u043e\u0442\u0440\u0435\u0431\u0438": 4693,
  "\u2581transfer": 4694,
  ".1": 4695,
  "atee": 4696,
  "\u2581Hav": 4697,
  "\u2581emo": 4698,
  "\u2581rang": 4699,
  "\u2581interior": 4700,
  "\u2581amen": 4701,
  "\u2581\u0440\u0435\u0448\u0435\u043d\u0438\u0435": 4702,
  "\u2581make": 4703,
  "\u2581\u0438\u043d\u0432\u0435\u0441\u0442\u0438": 4704,
  "orth": 4705,
  "\u2581Data": 4706,
  "00.": 4707,
  "CS": 4708,
  "\u2581\u0443\u043b\u044b": 4709,
  "\u2581menu": 4710,
  "\u2581import": 4711,
  "\u0443\u0442": 4712,
  "\u2581\u043f\u0435\u0440\u0435\u0434\u0430": 4713,
  "\u2581\u043f\u0430\u043c": 4714,
  "\u2581\u0441\u044f": 4715,
  "\u2581\u043f\u0440\u043e\u0446\u0435\u0441": 4716,
  "\u2581gall": 4717,
  "\u043c\u043e\u0440": 4718,
  "\u2581\u0434\u0430\u043b\u0438": 4719,
  "\u2581\u041f\u041e": 4720,
  "\u0441\u0441\u0438": 4721,
  "\u2581\u0433\u043e\u0440": 4722,
  "CD": 4723,
  "\u2581Just": 4724,
  "rift": 4725,
  "\u2581\u043d\u0430\u043f\u0438\u0441\u0430": 4726,
  "\u25811989": 4727,
  "\u0442\u0435\u043b\u044c\u0441\u0442\u0432\u0430": 4728,
  "\u2581\u0440\u0430\u0434": 4729,
  "lands": 4730,
  "\u2581George": 4731,
  "2013": 4732,
  "\u043c\u043e\u043c": 4733,
  "\u2581exc": 4734,
  "\u2581\u043e\u0441\u043d\u043e\u0432\u0430": 4735,
  "\u2581legal": 4736,
  "\u2581\u043d\u0430\u0434\u0435": 4737,
  "\u2581cup": 4738,
  "\u2581\u0410\u043d\u0434": 4739,
  "86": 4740,
  "\u043d\u0430\u0434": 4741,
  "\u2581\u0440\u0430\u0437\u0432\u0438": 4742,
  "hall": 4743,
  "\u2581\u0436\u0438\u0432\u043e": 4744,
  "\u0431\u0435\u0440\u0435": 4745,
  "\u2581mobile": 4746,
  "\u2581mort": 4747,
  "lement": 4748,
  "\u2581\u0441\u043e\u0433\u043b\u0430": 4749,
  "\u0433\u043e\u0432": 4750,
  "\u2581\u0441\u0434\u0435\u043b\u0430\u0442\u044c": 4751,
  "\u258196": 4752,
  "\u2581agen": 4753,
  "\u2581\u0430\u0432\u0430": 4754,
  "71": 4755,
  "\u2581Amazon": 4756,
  "\u041e\u041b": 4757,
  "\u2581Motor": 4758,
  "\u2581install": 4759,
  "\u0435\u043d\u044c": 4760,
  "\u2581\u0443\u0447\u0430\u0441\u0442": 4761,
  "\u2581download": 4762,
  "\u0433\u043e\u0432\u043e\u0440\u0438": 4763,
  "\u258124,": 4764,
  "52": 4765,
  "\u043f\u0435\u0440\u0435": 4766,
  "\u043d\u044c\u043e": 4767,
  "\u0437\u043e\u0432": 4768,
  "\u2581\u0431\u0438\u0442": 4769,
  "\u0448\u043d\u0430": 4770,
  "\u2581status": 4771,
  "\u2581water": 4772,
  "\u2581\u0441\u043e\u0446\u0438\u0430\u043b\u044c": 4773,
  "\u0432\u044c": 4774,
  "\u2581Ret": 4775,
  "\u2581page": 4776,
  "\u2581\u043e\u0440\u0433\u0430\u043d\u0438\u0437\u0430\u0446\u0438\u0438": 4777,
  "\u043b\u0430\u0433": 4778,
  "\u0441\u0442\u0435\u043d": 4779,
  "\u2581\u0412\u0430\u043c": 4780,
  "\u2581\u043c\u0430\u0442\u0435\u0440\u0438\u0430\u043b": 4781,
  "\u2581\u0431\u043b\u0438": 4782,
  "\u2581\u0424\u0435\u0434\u0435\u0440\u0430": 4783,
  "\u2581\u043c\u044f": 4784,
  "\u2581Team": 4785,
  "\u2581econom": 4786,
  "\u2581\u0434\u0440\u0443\u0433": 4787,
  "\u2581\u043f\u043e\u0440\u0430": 4788,
  "\u2581\u0441\u043b\u0438": 4789,
  "\u043a\u0438\u043d": 4790,
  "\u043c\u0435\u0440\u0435": 4791,
  "\u0432\u043e\u044e": 4792,
  "ict": 4793,
  "\u0445\u0430\u043d\u0430": 4794,
  "\u2581\u0432\u043d\u0438\u043c\u0430\u043d\u0438\u0435": 4795,
  "\u2581question": 4796,
  "\u0441\u0442\u0432\u0435\u043d\u043d\u043e": 4797,
  "\u2581\u0430\u043d\u0430": 4798,
  "\u043c\u0438\u044f": 4799,
  "\u2581\u043c\u0430\u043b": 4800,
  "\u0441\u0442\u044e": 4801,
  "\u2581Eth": 4802,
  "\u0442\u0435\u043f": 4803,
  "\u2581\u0425\u0443": 4804,
  "ffi": 4805,
  "\u2581\u043a\u0440\u0430\u0439": 4806,
  "\u2581Europe": 4807,
  "\u2581tele": 4808,
  "\u0442\u0438\u043a": 4809,
  "\u2581propor": 4810,
  "\u2581360": 4811,
  "\u043a\u043d\u0443": 4812,
  "\u0448\u0435\u0439": 4813,
  "\u0446\u0438\u043e": 4814,
  "\u2581process": 4815,
  "\u2581\u0441\u0435\u0439\u0447\u0430\u0441": 4816,
  "\u043c\u0430\u0433\u0430": 4817,
  "\u2581\u0434\u0443\u043c\u0430": 4818,
  "\u2581\u043a\u0440\u0435\u0434\u0438": 4819,
  "\u0446\u043e": 4820,
  "\u2581\u0447\u0435\u043b\u043e\u0432\u0435\u043a\u0430": 4821,
  "53": 4822,
  "7%": 4823,
  "\u2581Hom": 4824,
  "\u2581cli": 4825,
  "\u0433\u0430\u0445": 4826,
  "\u2581\u044f\u0432": 4827,
  "ments": 4828,
  "\u043c\u0435\u043d\u0435": 4829,
  "\u043a\u0441\u0430": 4830,
  "\u2581\u043c\u0435\u0440": 4831,
  "\u043a\u043b\u0438": 4832,
  "ally": 4833,
  "\u2581\u043f\u0440\u043e\u0442\u0438": 4834,
  "\u2581lay": 4835,
  "\u2581\u0430\u0436": 4836,
  "\u258120%": 4837,
  "\u2581\u0441\u0440\u0435\u0434\u0438": 4838,
  "\u2581(9": 4839,
  "\u0447\u0430\u0439": 4840,
  "\u0443\u0434\u0430": 4841,
  "\u043a\u043e\u0432\u043e": 4842,
  "\u043c\u0430\u0445": 4843,
  "\u2581\u0413\u0443": 4844,
  "\u2581\u0436\u043e": 4845,
  "\u2581transform": 4846,
  "\u2581Gold": 4847,
  "\u2581prec": 4848,
  "\u0447\u0435\u0441\u043a\u0438\u0439": 4849,
  "\u0438\u0442": 4850,
  "\u043b\u0430\u0441": 4851,
  "\u044c\u044e": 4852,
  "\u2581\u0431\u0440": 4853,
  "\u2581\u0434\u043e\u0431": 4854,
  "\u0434\u044d": 4855,
  "\u2581line": 4856,
  "\u0448\u043b\u0438": 4857,
  "ugh": 4858,
  "\u2581hug": 4859,
  "\u0435\u043c\u0430": 4860,
  "\u2581\u0437\u043b\u043e": 4861,
  "\u2581char": 4862,
  "\u25811991": 4863,
  "\u043a\u0430\u0442": 4864,
  "\u2581\u0431\u0430\u0440\u044b": 4865,
  "\u2581foc": 4866,
  "\u0447\u043d\u044b\u0439": 4867,
  "\u2581\u043a\u0440": 4868,
  "\u2581Central": 4869,
  "\u2581\u0444\u043e\u0440\u043c\u0438": 4870,
  "\u2581Pic": 4871,
  "cks": 4872,
  "4%": 4873,
  "\u0447\u043d\u0430\u044f": 4874,
  "\u2581\u043f\u0440\u043e\u0446\u0435": 4875,
  "\u2581\u0431\u0438\u043b": 4876,
  "iding": 4877,
  "\u2581\u0433\u0440": 4878,
  "\u043d\u043e\u0441\u0442\u044c\u044e": 4879,
  "\u2581House": 4880,
  "\u2581\u0432\u0438\u0434\u0438": 4881,
  "\u0449\u0435\u043d\u0438\u0435": 4882,
  "\u0436\u043a\u0430": 4883,
  "\u2581\u0441\u043e\u043b": 4884,
  "\u2581\u0443\u0441\u0442\u0430\u043d\u043e\u0432": 4885,
  "\u2581\u0437\u0430\u043c\u0435": 4886,
  "\u2581\u0441\u0432\u043e\u0435\u0439": 4887,
  "\u0440\u0438\u0441\u0442\u0438": 4888,
  "\u2581Centre": 4889,
  "\u043f\u0438\u0441": 4890,
  "pm": 4891,
  "\u25812.0": 4892,
  "\u2581\u0443\u0431\u0438": 4893,
  "oun": 4894,
  "\u2581\u043a\u0440\u0443": 4895,
  "\u041d\u0435": 4896,
  "\u2581Japan": 4897,
  "\u2581\u0441\u0447\u0438\u0442\u0430": 4898,
  "\u2581\u043d\u0435\u043a\u0430": 4899,
  "\u044c\u044f": 4900,
  "\u2581\u0434\u0435\u0439": 4901,
  "\u2581sites": 4902,
  "\u042a": 4903,
  "\u2581ISO": 4904,
  "\u2581\u0441\u0442\u0440\u0430\u043d\u0438": 4905,
  "\u258161": 4906,
  "\u2581\u0447\u0430\u0441\u0430": 4907,
  "\u2581Vic": 4908,
  "\u0447\u0435\u043d\u0438": 4909,
  "82": 4910,
  "ming": 4911,
  "\u0441\u0441\u0430": 4912,
  "\u2581RSS": 4913,
  "\u2581\u0440\u0435\u0436\u0438": 4914,
  "\u2581\u0434\u0438\u0430": 4915,
  "rey": 4916,
  "\u0440\u0438\u043c": 4917,
  "\u2581\u043f\u043e\u0431\u0435": 4918,
  "-2017": 4919,
  "\u2581\u041a\u0430\u043a\u043e": 4920,
  "-30": 4921,
  "\u0447\u0438\u043b": 4922,
  "\u2581\u0424\u0430": 4923,
  "\u2581\u043c\u0438\u043d\u0438": 4924,
  "\u0441\u0430\u0439": 4925,
  "\u2581\u0430\u043c\u0435\u0440\u0438\u043a\u0430\u043d": 4926,
  "\u2581gent": 4927,
  "\u0433\u0430\u0442\u0430": 4928,
  "\u0442\u044b\u043c": 4929,
  "\u0414\u0418": 4930,
  "\u2581suite": 4931,
  "\u043a\u043b\u0435": 4932,
  "\u2581Memb": 4933,
  "\u2581arri": 4934,
  "\u0445\u043e\u0432": 4935,
  "\u0432\u043e\u0437": 4936,
  "\u2581\u0442\u043e\u0447\u043d\u043e": 4937,
  "\u2581\u043a\u043e\u043c\u0438": 4938,
  "\u2581\u0432\u0430\u0436\u043d\u043e": 4939,
  "\u043b\u0438\u043c": 4940,
  "\u0432\u043e\u0440\u0438": 4941,
  "\u25811-2": 4942,
  "\u2581point": 4943,
  "\u2581\u043d\u0430\u0434\u0430": 4944,
  "\u0441\u043e\u0442": 4945,
  "\u2581\u043f\u043e\u043d\u0435": 4946,
  "\u2581adv": 4947,
  "\u0440\u0430\u0434\u0438": 4948,
  "\u25811994": 4949,
  "\u0440\u043e\u043b": 4950,
  "\u2581\u043e\u0440\u0433\u0430\u043d\u0438\u0437\u0430": 4951,
  "\u2581\u0447\u0435\u0442": 4952,
  "\u2581Business": 4953,
  "\u2581Music": 4954,
  "own": 4955,
  "\u2581\u043f\u043e\u0441\u043e": 4956,
  "\u2581\u044d\u043b\u0435\u043a\u0442\u0440\u043e\u043d": 4957,
  "\u2581\u0441\u0430\u043d\u0430": 4958,
  "\u258176": 4959,
  "\u0447\u0438\u043c": 4960,
  "\u2581here": 4961,
  "\u2581RE": 4962,
  "\u2581\u0441\u0442\u043e\u0438\u0442": 4963,
  "the": 4964,
  "\u2581\u0445\u043e\u0440\u0430": 4965,
  "\u2581version": 4966,
  "\u2581\u0441\u0442\u0443\u0434\u0435\u043d": 4967,
  "\u0442\u0435\u0439": 4968,
  "\u2581\u043d\u0435\u0434\u043e": 4969,
  "\u2581\u043f\u0440\u043e\u0431\u043b\u0435\u043c\u0430": 4970,
  "\u2581\u0440\u0435\u0433\u0438\u043e\u043d\u0430": 4971,
  "\u2581125": 4972,
  "\u2581\u0442\u0432\u043e": 4973,
  "\u2581\u043d\u0430\u0432": 4974,
  "\u0441\u0442\u0443\u043f\u0430": 4975,
  "inet": 4976,
  "\u2581\u043c\u0438\u043d\u0443": 4977,
  "\u043c\u0438\u043d\u0438": 4978,
  "\u25811992": 4979,
  "\u2581\u0441\u0442\u0440\u0430\u043d": 4980,
  "\u2581\u0433\u0440\u043e": 4981,
  "\u258130,": 4982,
  "\u043b\u043e\u0436\u0435": 4983,
  "ned": 4984,
  "\u2581\u0440\u0430\u0437\u0440\u0430\u0431\u043e": 4985,
  "pren": 4986,
  "\u2581CS": 4987,
  "\u043d\u0430\u043a": 4988,
  "\u2581Stand": 4989,
  "pert": 4990,
  "\u0447\u0438\u043d\u0430": 4991,
  "ped": 4992,
  "\u2581\u0433\u043e\u0440\u043e\u0434\u0430": 4993,
  "\u2581collec": 4994,
  "\u2581larg": 4995,
  "\u043a\u0442\u0438\u0432": 4996,
  "\u0447\u043d\u044b\u0435": 4997,
  "\u2581\u043d\u0430\u0448\u0438": 4998,
  "\u0434\u0438\u043e": 4999,
  "\u0441\u0442\u043e\u0439": 5000,
  "\u2581NH": 5001,
  "see": 5002,
  "2012": 5003,
  "unter": 5004,
  "\u2581mist": 5005,
  "\u2581\u043e\u0434\u043d\u043e\u0433\u043e": 5006,
  "\u25813000": 5007,
  "\u2581\u0437\u0430\u0440": 5008,
  "\u2581stress": 5009,
  "\u2581boy": 5010,
  "\u044a\u044f": 5011,
  "\u2581RS": 5012,
  "\u0432\u0438\u043d": 5013,
  "\u2581\u0441\u0442\u0440\u0435": 5014,
  "\u2581caus": 5015,
  "\u0434\u0435\u043b\u044f": 5016,
  "\u2581\u0434\u0435\u0442\u0435\u0439": 5017,
  "\u2581cla": 5018,
  "\u2581\u0433\u043e\u0434\u0438": 5019,
  "BB": 5020,
  "\u2581\u0441\u0442\u0440\u0443": 5021,
  "-14": 5022,
  "\u2581agent": 5023,
  "\u2581\u043d\u0435\u043e\u0431\u0445\u043e\u0434\u0438": 5024,
  "84": 5025,
  "\u0440\u0430\u0430": 5026,
  "\u2581\u0432\u043e\u0441": 5027,
  "\u041b\u0415": 5028,
  "\u2581\u0412\u0435\u043b\u0438": 5029,
  "\u2581SS": 5030,
  "\u2581\u0442\u043e\u043f": 5031,
  "\u2581\u0442\u0440\u0430\u043d": 5032,
  "\u0448\u0438\u0435": 5033,
  "\u2581\u0430\u0432": 5034,
  "\u2581dedic": 5035,
  "\u2581\u0442\u0440\u0430\u043d\u0441\u043f\u043e\u0440\u0442": 5036,
  "\u2581\u0416\u0435": 5037,
  "\u2581case": 5038,
  "\u2581\u043f\u043e\u0447\u0438": 5039,
  "\u2581hold": 5040,
  "\u0433\u0430\u0439": 5041,
  "\u2581solid": 5042,
  "87": 5043,
  "\u2581reac": 5044,
  "\u2581\u0441\u0442\u0440\u043e\u0438": 5045,
  "\u043d\u044b\u043d": 5046,
  "\u0430\u043d\u0430": 5047,
  "\u2581\u0437\u0430\u043c": 5048,
  "\u2581major": 5049,
  "\u2581demand": 5050,
  "\u2581visit": 5051,
  "\u2581comb": 5052,
  "\u2581\u043f\u043e\u043b\u0443\u0447\u0438": 5053,
  "\u043b\u044c\u043e": 5054,
  "\u2581\u0412\u0430\u0441": 5055,
  "\u2581type": 5056,
  "\u043b\u0430\u043d\u0434\u044b": 5057,
  "utes": 5058,
  "\u2581\u043c\u0430\u0433\u0430\u0437\u0438": 5059,
  "\u2581\u043f\u0440\u0438\u0447\u0438": 5060,
  "\u2581\u0441\u0432\u0435\u0442\u0430": 5061,
  "\u0441\u0442\u0432\u0438": 5062,
  "\u25811500": 5063,
  "\u043b\u044c\u043d\u044b\u043c": 5064,
  "\u0445\u043e\u0434\u0438\u0442": 5065,
  "\u2581publ": 5066,
  "\u2581Street": 5067,
  "\u2581\u0441\u0430\u0439\u0442\u0435": 5068,
  "\u2581\u0435\u043c\u0443": 5069,
  "83": 5070,
  "ities": 5071,
  "\u2581\u0440\u0435\u0434": 5072,
  "\u2581\u0432\u0441\u0451": 5073,
  "2010": 5074,
  "\u2581\u0434\u043e\u043a\u0443\u043c\u0435\u043d\u0442\u0430": 5075,
  "\u2581\u043f\u0440\u0438\u043d\u044f": 5076,
  "\u2581\u043a\u043e\u043b\u0438\u0447\u0435\u0441\u0442\u0432\u043e": 5077,
  "\u0449\u0438\u0445": 5078,
  "\u2581\u0427\u0442\u043e": 5079,
  "\u2581EX": 5080,
  "\u2581\u041a\u0440\u0438": 5081,
  "\u0432\u0430\u044e\u0442": 5082,
  "tual": 5083,
  "\u2581\u0440\u043e\u0434\u0438": 5084,
  "aster": 5085,
  "\u2581\u0441\u0430\u043b\u0430": 5086,
  "\u2581\u043c\u0443\u0436": 5087,
  "\u2581\u0434\u043e\u0431\u0440\u0435": 5088,
  "\u2581\u0433\u043b\u0443": 5089,
  "\u2581\u0444\u0438\u043d\u0430\u043d\u0441\u0438": 5090,
  "\u2581spec": 5091,
  "\u2581\u043e\u0441\u044b": 5092,
  "\u2581\u043f\u0435\u0442": 5093,
  "CM": 5094,
  "\u2581\u043f\u0440\u043e\u0438\u0437\u0432\u043e\u0434": 5095,
  "\u2581\u0442\u043e\u0436\u0435": 5096,
  "\u25817-": 5097,
  "\u2581\u0418\u0441\u0442\u043e": 5098,
  "rier": 5099,
  "\u043f\u043e\u0432": 5100,
  "\u043b\u0435\u043d\u0438": 5101,
  "\u2581\u0437\u0430\u043a\u043b\u044e": 5102,
  "\u2581\u043e\u0434\u043d\u0430": 5103,
  "\u043b\u044f\u043d": 5104,
  "\u043b\u0433\u0430": 5105,
  "fac": 5106,
  "\u2581saw": 5107,
  "\u2581\u043f\u0440\u043e\u0438\u0437\u0432\u043e\u0434\u0438": 5108,
  "\u2581overs": 5109,
  "\u0434\u0440": 5110,
  "\u043b\u0451": 5111,
  "\u2581\u043f\u0440\u043e\u0438\u0437": 5112,
  "\u2581\u041f\u043e\u043b\u044c": 5113,
  "\u2581cour": 5114,
  "tee": 5115,
  "\u2581fire": 5116,
  "\u043b\u043e\u0433\u0430": 5117,
  "\u0447\u0438\u0442\u0430": 5118,
  "\u2581cast": 5119,
  "\u2581tech": 5120,
  "\u2581aud": 5121,
  "\u2581same": 5122,
  "\u2581Oxford": 5123,
  "\u043d\u043a\u0438": 5124,
  "\u2581begin": 5125,
  "\u043b\u0430\u043c": 5126,
  "\u0436\u0434\u0435": 5127,
  "\u0422\u0430": 5128,
  "\u2581\u0445\u0440\u0430": 5129,
  "\u2581\u043e\u0444\u0438\u0446\u0438": 5130,
  "\u2581Tele": 5131,
  "\u25818-": 5132,
  "\u043f\u043b\u0438": 5133,
  "\u2581\u043d\u0430\u0447\u0438\u043d\u0430": 5134,
  "\u2581Way": 5135,
  "\u258186": 5136,
  "\u2581\u0432\u0442\u043e": 5137,
  "ends": 5138,
  "\u2581\u043a\u043e\u043d\u043a\u0443\u0440": 5139,
  "\u2581JavaScript": 5140,
  "\u043c\u043e\u0432\u0430": 5141,
  "\u2581psych": 5142,
  "\u2581\u0434\u043e\u043c": 5143,
  "\u2581\u0421\u0435\u0440": 5144,
  "\u043c\u0435\u043d\u0443": 5145,
  "\u25811950": 5146,
  "\u2581Master": 5147,
  "\u2581\u0438\u0441\u043f\u043e\u043b\u044c\u0437\u0443": 5148,
  "\u2581\u0431\u0443\u0434\u044c": 5149,
  "\u2581\u0432\u043e\u0434\u043e": 5150,
  "VI": 5151,
  "\u0440\u0435\u0439": 5152,
  "\u2581\u0441\u043e\u043d": 5153,
  "\u2581\u0444\u043e\u0440\u043c\u0443": 5154,
  "\u2581\u0438\u043c\u0435\u0435\u0442": 5155,
  "\u0441\u0442\u0430\u0432\u0430": 5156,
  "\u2581\u0440\u044b": 5157,
  "ission": 5158,
  "\u041c\u0438": 5159,
  "\u2581\u0431\u0430\u0433\u0430": 5160,
  "\u2581\u0441\u043a\u043e": 5161,
  "pom": 5162,
  "\u2581League": 5163,
  "\u2581SD": 5164,
  "\u0440\u0430\u0437\u0443": 5165,
  "\u0447\u0435\u043d\u0430": 5166,
  "\u2581class": 5167,
  "\u2581\u0437\u0434\u0435\u0441\u044c": 5168,
  "51": 5169,
  "\u258173": 5170,
  "\u2581\u043a\u043e\u043d\u043a\u0440\u0435": 5171,
  "\u0433\u043e\u0432\u0438": 5172,
  "\u2581\u043b\u0438\u0448\u0435": 5173,
  "\u0448\u0438\u043d": 5174,
  "\u2581rock": 5175,
  "\u2581\u0442\u0435\u043b\u0435\u0444\u043e\u043d": 5176,
  "cil": 5177,
  "\u2581\u043f\u0441\u0438\u0445\u043e": 5178,
  "\u2581\u043f\u043e\u043d\u0438\u043c\u0430": 5179,
  "\u2581celeb": 5180,
  "\u2581\u0433\u043b\u0430\u0432": 5181,
  "\u2581\u0422\u0440\u0435": 5182,
  "\u2581Spa": 5183,
  "\u0421\u041f": 5184,
  ".09.": 5185,
  "urer": 5186,
  "\u2581King": 5187,
  "\u0437\u0435\u043c": 5188,
  "\u2581GPS": 5189,
  "\u043d\u0438\u043a\u043e\u0432": 5190,
  "cian": 5191,
  "\u2581(+": 5192,
  "\u2581need": 5193,
  "\u2581\u043c\u043d\u043e": 5194,
  "\u2581\u043e\u0431\u0440\u0430\u0437\u043e\u0432\u0430": 5195,
  "wing": 5196,
  "\u2581\u0441\u0432\u043e\u0435": 5197,
  "\u2581\u0434\u043e\u0431\u0440\u0430": 5198,
  "800": 5199,
  "\u044f\u043c\u0438": 5200,
  "\u043b\u044c\u043d\u0438": 5201,
  "\u2581Smart": 5202,
  "\u2581\u0440\u0435\u0448\u0435": 5203,
  "\u2581\u0440\u0443\u0431\u043b\u0435\u0439": 5204,
  "\u2581Cla": 5205,
  "\u2581Wall": 5206,
  "\u2581\u0441\u0442\u0440\u0430\u043d\u0435": 5207,
  "\u0434\u043e\u0440": 5208,
  "\u0434\u0436\u0430": 5209,
  "\u2581\u0432\u043e\u0437\u043c\u043e\u0436\u043d\u043e\u0441\u0442\u044c": 5210,
  "rol": 5211,
  "\u258174": 5212,
  "\u0440\u0435\u0441": 5213,
  "\u2581\u0447\u043b\u0435\u043d": 5214,
  "\u0448\u043a\u0435": 5215,
  "\u2581\u0442\u0430\u043d": 5216,
  "ower": 5217,
  "\u0436\u0434\u0430\u043d\u0435": 5218,
  "\u2581\u0434\u043e\u043b\u0436\u043d\u044b": 5219,
  "\u0449\u0435\u043d\u0438\u044f": 5220,
  "\u2581prior": 5221,
  "ivers": 5222,
  "\u0447\u043d\u043e\u0439": 5223,
  "\u2581\u0430\u0432\u0433\u0443\u0441\u0442": 5224,
  "\u2581\u043e\u0432\u043e": 5225,
  "\u258197": 5226,
  "\u2581\u0440\u0443\u0431": 5227,
  "\u2581\u0431\u0438\u043b\u0438": 5228,
  "\u0447\u044c": 5229,
  "\u2581func": 5230,
  "\u2581Ps": 5231,
  "\u043c\u043e\u0436": 5232,
  "\u0441\u0442\u0438\u043a\u0430": 5233,
  "\u0440\u0443\u0441": 5234,
  "\u2581circ": 5235,
  "\u2581\u043d\u044b": 5236,
  "\u2581Store": 5237,
  "\u2581\u043f\u0440\u043e\u0434\u0443\u043a": 5238,
  "\u2581\u0437\u0430\u0445": 5239,
  "\u2581\u0440\u0435\u0430\u043b\u0438": 5240,
  "\u2581\u043f\u0440\u043e\u0432\u0435\u0434\u0435": 5241,
  "\u043c\u0438\u0440\u0430": 5242,
  "\u2581still": 5243,
  "\u043b\u0430\u043c\u0430": 5244,
  "\u0434\u0432\u0430": 5245,
  "\u0442\u0435\u043b\u044c\u0441\u0442\u0432\u043e": 5246,
  "\u2581\u0413\u043b\u0430": 5247,
  "\u2581Studi": 5248,
  "\u2581\u0432\u044b\u043f\u043e\u043b": 5249,
  "\u2581(15": 5250,
  "\u2581\u043a\u0438\u043d\u043e": 5251,
  "\u043c\u0435\u0440\u0438": 5252,
  "\u0434\u0435\u0442\u0435": 5253,
  "play": 5254,
  "\u0446\u0435\u0432": 5255,
  "\u2581\u043f\u043e\u0435": 5256,
  "\u2581Full": 5257,
  "\u0434\u0435\u043b\u0430": 5258,
  "\u258184": 5259,
  "\u2581\u043f\u043e\u043f\u0443\u043b\u044f\u0440": 5260,
  "\u2581wit": 5261,
  "\u2581Chap": 5262,
  "\u2581\u043f\u043e\u044d\u0442\u043e\u043c\u0443": 5263,
  "\u2581\u0440\u0435\u0433\u0438": 5264,
  "\u2581\u043d\u0438\u0437": 5265,
  "\u043b\u043d\u0438\u0442\u0435": 5266,
  "\u044d\u0442": 5267,
  "\u043d\u043e\u0432\u043e": 5268,
  "\u2581\u043b\u044f": 5269,
  "\u2581\u043f\u043e\u0441\u0442\u0438": 5270,
  "\u0440\u043e\u0432\u0430\u043d\u0438\u044f": 5271,
  "\u2581studio": 5272,
  "\u2581\u043f\u0440\u0435\u043c\u0438": 5273,
  "\u0434\u043e\u0432\u043e": 5274,
  "\u2581got": 5275,
  "\u2581\u0440\u0430\u0437\u043c\u0435": 5276,
  "\u2581\u043c\u0435\u0442\u043e": 5277,
  "\u2581\u0422\u0443\u0440": 5278,
  "9%": 5279,
  "\u2581\u043d\u0430\u0437\u0432\u0430": 5280,
  "\u2581\u0441\u043f\u043e\u0441\u043e": 5281,
  "\u2581Control": 5282,
  "\u2581\u0431\u0435\u043b": 5283,
  "asis": 5284,
  "\u25811993": 5285,
  "\u2581\u043d\u043e\u0432\u0430": 5286,
  "\u2581\u043d\u0430\u043f\u0440\u0438\u043c\u0435\u0440": 5287,
  "\u0445\u043e\u0434\u044f": 5288,
  "\u2581\u043f\u043e\u043c\u0438": 5289,
  "\u2581\u043e\u043a\u0430\u0437\u0430": 5290,
  "\u2581\u041c\u0430\u0439": 5291,
  "\u2581FM": 5292,
  "cing": 5293,
  "\u2581\u0432\u044a": 5294,
  "\u2581\u0434\u043d\u0438": 5295,
  "\u2581director": 5296,
  "\u044c\u0435": 5297,
  "\u0448\u0435\u043c": 5298,
  "\u2581pool": 5299,
  "\u0436\u0434\u0435\u043d\u0438\u044f": 5300,
  "\u2581pip": 5301,
  "\u2581School": 5302,
  "\u2581\u0437\u0435": 5303,
  "\u044b\u043c": 5304,
  "ESS": 5305,
  "otes": 5306,
  "\u2581Times": 5307,
  "uding": 5308,
  "\u2581micro": 5309,
  ".04.": 5310,
  "\u0432\u0435\u0446": 5311,
  "\u2581Map": 5312,
  "\u2581\u043d\u0430\u0441\u0442\u0443\u043f": 5313,
  "\u2581\u0410\u0432": 5314,
  "\u044f\u0442\u044c": 5315,
  "\u2581\u0438\u043d\u0442\u0435\u0440\u0435\u0441": 5316,
  "\u2581platform": 5317,
  ".03.": 5318,
  "\u2581\u043d\u0435\u043a\u043e": 5319,
  "\").": 5320,
  "\u0444\u043e\u0440\u043c\u0430": 5321,
  "\u2581Cro": 5322,
  "\u2581\u043a\u043e\u043d\u0442\u0440\u043e": 5323,
  "\u2581\u0433\u0430\u0440\u0430\u043d": 5324,
  "\u2581\u043d\u0435\u0443": 5325,
  "\u0438\u043b": 5326,
  "\u2581\u043c\u0435\u0440\u0435": 5327,
  "\u0448\u044c": 5328,
  "\u2581\u0421\u0430\u043d": 5329,
  "\u2581\u0441\u0435\u043d": 5330,
  "\u2581\u0443\u0441\u043b\u043e\u0432\u0438\u044f": 5331,
  "\u2581HTML": 5332,
  "sing": 5333,
  "\u2581\u043d\u0430\u0441\u0442\u043e\u044f": 5334,
  "\u2581arriv": 5335,
  "\u2581\u043f\u043e\u0442\u043e\u043c\u0443": 5336,
  "5%": 5337,
  "\u2581\u0421\u043b\u0435\u0434": 5338,
  "\u2581Digital": 5339,
  "\u0434\u0430\u0432": 5340,
  "\u2581pub": 5341,
  "\u2581\u0437\u0432\u0443": 5342,
  "\u2581\u0412\u0435\u0440": 5343,
  "\u2581\u0438\u043d\u0435": 5344,
  "\u2581\u0441\u0442\u0430\u0440": 5345,
  "\u2581\u043d\u0430\u0440\u0430": 5346,
  "\u2581risk": 5347,
  ".06.": 5348,
  "\u2581iPad": 5349,
  ".02.": 5350,
  "MP": 5351,
  "\u2581Minister": 5352,
  "ories": 5353,
  "\u0441\u043f\u043e\u0440\u0442": 5354,
  "\u0447\u043d\u0438\u0442\u0435": 5355,
  "\u2581Ford": 5356,
  "\u2581single": 5357,
  "-13": 5358,
  "\u2581\u0443\u043d\u0438\u0432\u0435\u0440\u0441\u0438\u0442\u0435": 5359,
  "\u2581\u043e\u0437\u043d\u0430": 5360,
  "\u2581(20": 5361,
  "\u0441\u0442\u0430\u043d\u0430": 5362,
  "\u2581interpret": 5363,
  "\u2581\u0431\u044e\u0434\u0436\u0435\u0442": 5364,
  "\u2581\u0444\u043e": 5365,
  "\u2581candid": 5366,
  "\u2581conse": 5367,
  "\u2581condu": 5368,
  "\u2581sign": 5369,
  "\u2581\u0441\u0443\u0431": 5370,
  "\u2581maxim": 5371,
  "sex": 5372,
  "\u2581220": 5373,
  "\u258182": 5374,
  "\u2581\u0437\u0430\u043f\u0438": 5375,
  "\u2581\u043a\u043e\u043c\u0430\u043d\u0434\u0430": 5376,
  "\u2581Note": 5377,
  "\u2581\u0431\u0430\u043b": 5378,
  "FC": 5379,
  "\u2581\u043f\u043e\u0447\u0442\u0438": 5380,
  "\u2581\u0433\u0440\u0430\u0436\u0434\u0430\u043d": 5381,
  "\u2581consult": 5382,
  "\u043f\u044f": 5383,
  "\u2581\u0437\u0432": 5384,
  "\u2581\u043f\u0440\u043e\u0432\u043e\u0434\u0438": 5385,
  "\u2581\u043f\u0430\u0442": 5386,
  "\u044f\u0432\u0438": 5387,
  "\u2581keen": 5388,
  "\u0435\u0432\u0430": 5389,
  "\u0444\u0438\u043a\u0430": 5390,
  "\u0433\u043e\u0432\u0430": 5391,
  "\u043b\u043a\u043e": 5392,
  "\u0441\u043b\u0435\u0434": 5393,
  "\u2581\u0417\u043e": 5394,
  "TP": 5395,
  "\u0441\u0430\u0440": 5396,
  "atives": 5397,
  "00,": 5398,
  "8%": 5399,
  "itions": 5400,
  "\u043f\u0443\u0441\u043a\u0430": 5401,
  "\u0448\u043b\u0430": 5402,
  "\u2581\u0421\u0442\u0440\u0430": 5403,
  "\u2581\u043f\u043e\u0441\u0442\u0430\u0432": 5404,
  "\u2581\u0437\u0430\u0434": 5405,
  "\u043b\u0438\u0432\u043e": 5406,
  "\u2581\u0437\u0430\u0449\u0438": 5407,
  "rais": 5408,
  "\u258192": 5409,
  "\u25811945": 5410,
  "\u2581\u0430\u0433\u0435\u043d": 5411,
  "\u2581\u043d\u0430\u0448\u0430": 5412,
  "\u0447\u0430\u0442\u044c": 5413,
  "\u2581\u0443\u0432\u0435": 5414,
  "\u0436\u0431\u0430": 5415,
  "\u2581\u0432\u0438\u0434\u0430": 5416,
  "\u2581\u043e\u043f\u043b\u0430": 5417,
  "\u2581\u0443\u043f\u043e": 5418,
  "\u2581March": 5419,
  "\u2581\u043d\u0430\u0440\u0443": 5420,
  "\u0448\u0435\u043b": 5421,
  "ences": 5422,
  "\u2581\u0430\u043b\u044c": 5423,
  "\u2581North": 5424,
  "\u0441\u0442\u043e\u0432": 5425,
  "\u0436\u0434\u0435\u043d": 5426,
  "\u2581\u0441\u0442\u0430\u0432": 5427,
  "\u2581govern": 5428,
  "\u258130%": 5429,
  "\u2581play": 5430,
  "\u2581\u0414\u0440\u0443": 5431,
  "\u0441\u0435\u043c": 5432,
  "\u2581\u0437\u0434\u0440\u0430\u0432": 5433,
  "\u2581\u043c\u0438\u043b\u043b\u0438": 5434,
  "\u2581tradition": 5435,
  "\u2581\u043c\u0435\u0442\u0430": 5436,
  "\u2581\u0421\u043f\u043e": 5437,
  "\u2581\u0441\u043b\u0435\u0434\u0443": 5438,
  "\u2581Jack": 5439,
  "\u0447\u043d\u044b\u043c": 5440,
  "\u2581Here": 5441,
  "\u0444\u0435\u043a": 5442,
  "shi": 5443,
  "\u2581\u043b\u0438\u0448\u044c": 5444,
  "\u0447\u043d\u0443": 5445,
  "\u0441\u0442\u044f": 5446,
  ".01.": 5447,
  "\u2581crit": 5448,
  "\u2581\u0442\u043e\u0442": 5449,
  "\u043b\u044c\u043d\u043e\u0435": 5450,
  "\u043a\u0442\u0443": 5451,
  "\u2581\u0440\u0430\u0437\u0440\u0435": 5452,
  "\u043d\u043e\u0441": 5453,
  "board": 5454,
  "\u2581\u0434\u0432\u043e": 5455,
  "\u0451\u0440": 5456,
  "\u2581\u0434\u0435\u044f\u0442\u0435\u043b\u044c\u043d\u043e\u0441\u0442\u0438": 5457,
  "\u2581\u0437\u0430\u043f\u0440\u043e": 5458,
  "\u2581\u0440\u0430\u0439\u043e\u043d\u044b": 5459,
  "\u2581\u0437\u0430\u0431\u0440\u0430": 5460,
  "\u2581\u0441\u043f\u0435\u0446\u0438\u0430\u043b\u0438": 5461,
  "\u2581\u041e\u043d\u0438": 5462,
  "\u2581\u043e\u0433\u0440\u043e\u043c": 5463,
  "WE": 5464,
  "\u2581\u0443\u043c\u0435": 5465,
  "\u2581smart": 5466,
  ".05.": 5467,
  "\u043b\u043d\u0435": 5468,
  "\u2581\u043c\u0430\u0442": 5469,
  "2011": 5470,
  "\u2581\u0438\u0437\u0440\u0430": 5471,
  "\u2581\u0421\u0442\u0435": 5472,
  "\u0441\u0442\u0430\u043d\u043e\u0432": 5473,
  "\u2581bec": 5474,
  "\u2581\u043f\u0440\u0435\u043a\u0440\u0430": 5475,
  "\u0432\u0435\u043d\u0430": 5476,
  "\u0434\u0438\u043d\u0438": 5477,
  "\u0440\u0442\u0443": 5478,
  "\u0441\u043b\u0430\u0432": 5479,
  "\u043d\u0435\u0441\u0435": 5480,
  "\u041a\u043e": 5481,
  "rent": 5482,
  "\u2581Win": 5483,
  "\u0431\u043e\u0432": 5484,
  "\u25815000": 5485,
  "\u2581\u0428\u0443": 5486,
  "\u2581\u0442\u0440\u0430\u0434\u0438": 5487,
  "\u2581Disc": 5488,
  "\u2581respons": 5489,
  "\u2581nec": 5490,
  "\u2581\u0432\u043e\u043f\u0440\u043e\u0441": 5491,
  "\u0448\u0435\u0440": 5492,
  "\u2581match": 5493,
  "\u25811940": 5494,
  "\u0442\u0438\u0432\u0430": 5495,
  "\u0430\u0440\u0438": 5496,
  "\u2581\u043f\u043e\u044f": 5497,
  "\u2581\u0445\u043e\u0442\u044f": 5498,
  "\u2581sle": 5499,
  "\u2581Charles": 5500,
  "\u2581identif": 5501,
  "\u0432\u0443\u044e": 5502,
  "\u258171": 5503,
  "\u041c\u043e": 5504,
  "ting": 5505,
  "\u2581\u0422\u0435\u0440": 5506,
  "\u0441\u043a\u0443\u044e": 5507,
  "miss": 5508,
  "\u2581desp": 5509,
  "\u2581gap": 5510,
  "\u2581\u043b\u0438\u0446\u0435": 5511,
  "cast": 5512,
  "\u2581host": 5513,
  "\u2581\u043f\u043e\u043b\u043e": 5514,
  "\u2581Dun": 5515,
  "\u2581\u0443\u0442": 5516,
  "\u2581PAR": 5517,
  "\u258183": 5518,
  "\u2581\u043e\u0431\u044a\u0435\u043a": 5519,
  "\u0434\u0438\u0442\u044c": 5520,
  "raft": 5521,
  "\u2581\u043d\u0438\u043c": 5522,
  "\u2581\u043e\u0442\u043b\u0438": 5523,
  "zed": 5524,
  "\u2581450": 5525,
  "\u2581\u043f\u043e\u043f\u0443": 5526,
  "\u2581tax": 5527,
  "\u0445\u043e\u0434\u0438\u0442\u044c": 5528,
  "\u043c\u0435\u0442\u0438": 5529,
  "\u0434\u043e\u0432\u0435": 5530,
  "\u0432\u0440\u0435": 5531,
  "\u0446\u0438\u0435\u0439": 5532,
  "\u2581December": 5533,
  "\u0430\u043d\u0443": 5534,
  "\u2581\u0430\u0440\u0442": 5535,
  "\u2581Word": 5536,
  "\u2581\u043c\u043e\u0431\u0438": 5537,
  "\u043a\u0430\u043b\u0430": 5538,
  "\u2581\u043a\u0435\u043c": 5539,
  "\u2581\u0438\u043d\u0444\u043e\u0440\u043c\u0430": 5540,
  "\u2581male": 5541,
  "\u043a\u0442\u044b": 5542,
  "\u043f\u0443\u0441\u0442\u0438": 5543,
  "ordin": 5544,
  "\u2581\u043c\u0435\u0442": 5545,
  "\u2581\u043e\u0431\u043b\u0430\u0441\u0442": 5546,
  "\u2581President": 5547,
  "\u2581music": 5548,
  "\u2581\u043a\u043e\u043b\u043e": 5549,
  "eline": 5550,
  "pay": 5551,
  "\u041d\u043e": 5552,
  "\u2581\u0442\u0443\u0440\u0438": 5553,
  "ups": 5554,
  "\u2581\u0441\u0435\u0433\u043e\u0434\u043d\u044f": 5555,
  "\u0441\u0435\u0442": 5556,
  "\u2581\u0438\u0437\u0443": 5557,
  "\u2581Sho": 5558,
  "\u2581record": 5559,
  "\u0434\u0435\u043d\u0430": 5560,
  "\u2581sci": 5561,
  "\u25811918": 5562,
  "\u0447\u0435\u0432": 5563,
  "eral": 5564,
  "\u2581felt": 5565,
  "\u2581\u0441\u0432\u043e\u0438\u0445": 5566,
  "\u2581\u0432\u0441\u0435\u043c": 5567,
  "\u2581\u0442\u0430\u0440\u0430": 5568,
  "\u0432\u0430\u043b\u044c": 5569,
  "\u258189": 5570,
  "\u2581\u0436\u0438\u0432\u043e\u0442\u0430": 5571,
  "\u0432\u043e\u043a": 5572,
  "\u2581\u043a\u0440\u044b": 5573,
  ".2": 5574,
  "\u0432\u0435\u043b\u0438": 5575,
  "\u2581\u0434\u0435\u0440\u0435": 5576,
  "\u2581\u0434\u043e\u043b\u0436\u0435\u043d": 5577,
  "\u2581\u0434\u0432\u0443\u0445": 5578,
  "\u2581reduc": 5579,
  "\u2581\u0428\u0438": 5580,
  "\u2581\u0431\u0443\u043b": 5581,
  "\u2581\u0434\u043e\u043f\u043e\u043b\u043d\u0438\u0442\u0435": 5582,
  "\u2581William": 5583,
  "\u2581Ltd": 5584,
  "\u2581certific": 5585,
  "\u2581\u044d\u043a\u043e\u043d\u043e\u043c\u0438": 5586,
  "\u2581\u043f\u0440\u043e\u0433\u0440\u0430\u043c\u043c\u0430": 5587,
  "\u2581tac": 5588,
  "\u2581ingredi": 5589,
  "\u2581\u0440\u0430\u0431\u043e\u0442\u0435": 5590,
  "room": 5591,
  "\u2581\u0436\u0438\u0437\u043d\u044c": 5592,
  "\u2581\u0440\u0430\u0434\u0438\u043e": 5593,
  "\u2581navig": 5594,
  "\u2581\u043b\u044e\u0431\u043e": 5595,
  "\u2581\u0440\u043e\u0431\u043e": 5596,
  "\u2581\u043e\u0442\u0432\u0435": 5597,
  "\u2581about": 5598,
  "\u0440\u0438\u043d\u0430": 5599,
  "\u2581\u0440\u0443\u0441": 5600,
  "\u2581access": 5601,
  "\u0445\u0430\u0439": 5602,
  "light": 5603,
  "\u0432\u043e\u0442\u043e": 5604,
  "\u2581\u0433\u043e\u0440\u043e\u0434": 5605,
  "\u0441\u0435\u0439": 5606,
  "\u2581\u0421\u0430\u043c\u043e": 5607,
  "\u2581\u043f\u043e\u0442\u043e\u043c": 5608,
  "\u2581RT": 5609,
  "6%": 5610,
  "\u2581HR": 5611,
  "\u2581\u043f\u043e\u0440\u0443": 5612,
  "\u0421\u0430": 5613,
  "\u0432\u0435\u0441\u0442": 5614,
  "\u2581\u0437\u0434\u043e\u0440\u043e\u0432": 5615,
  "ving": 5616,
  "vio": 5617,
  "\u2581\u043d\u0430\u0437\u0430\u0434": 5618,
  "lies": 5619,
  "\u2581\u0410\u0439": 5620,
  "\u2581\u0447\u0440\u0435\u0437": 5621,
  "\u2581rich": 5622,
  "\u2581reserv": 5623,
  "\u0437\u043c\u0443": 5624,
  "\u2581\u043c\u043e\u043c\u0435\u043d\u0442\u0430": 5625,
  "\u2581\u0440\u0435\u043a\u043b\u0430": 5626,
  "\u2581\u0410\u0431": 5627,
  "duc": 5628,
  "\u2581\u043f\u0440\u043e\u0444\u0435\u0441\u0441\u0438\u043e\u043d\u0430": 5629,
  "\u2581\u043e\u0433\u0440\u0430\u043d\u0438": 5630,
  "\u25813,5": 5631,
  "\u0451\u0442": 5632,
  "\u043f\u0430\u0440\u0430\u0442": 5633,
  "\u0433\u0440\u0443": 5634,
  "\u2581\u0442\u0435\u043c\u0430": 5635,
  "\u2581\u0434\u0440\u0443\u0433\u0438\u0435": 5636,
  "\u2581Show": 5637,
  "\u2581sold": 5638,
  "\u2581\u0440\u0435\u0448\u0438": 5639,
  "\u2581\u043a\u043e\u043d\u0435\u0447\u043d\u043e": 5640,
  "\u0442\u0438\u0438": 5641,
  "\u2581views": 5642,
  "sc": 5643,
  "\u2581key": 5644,
  "\u0436\u043a\u0438": 5645,
  "\u0411\u0410": 5646,
  "\u2581trend": 5647,
  "\u0437\u0434\u0435": 5648,
  "\u2581insp": 5649,
  "\u2581\u0433\u0435\u043d\u0435\u0440\u0430": 5650,
  "\u2581urban": 5651,
  "\u2581later": 5652,
  "\u2581\u041c\u0430\u043a\u0435\u0434\u043e": 5653,
  "tering": 5654,
  "\u2581\u043e\u0431\u0440\u0430\u0437\u043e\u043c": 5655,
  "\u2581\u0443\u0440": 5656,
  "\u2581\u0431\u0438\u043b\u0435": 5657,
  "\u0436\u0435\u0442": 5658,
  "\u2581\u0441\u043e\u0446\u0438": 5659,
  "\u2581\u043d\u0430\u043f\u0438": 5660,
  "\u2581\u0437\u0430\u0431\u0430": 5661,
  "\u043f\u043e\u0440": 5662,
  "\u043e\u043d\u0438": 5663,
  "\u043d\u0435\u0433\u043e": 5664,
  "\u2581Marketing": 5665,
  "\u2581Harry": 5666,
  "\u2581\u041e\u0434\u043d\u0430\u043a\u043e": 5667,
  "\u2581\u0443\u043b\u0438": 5668,
  "\u2581\u0411\u0435\u043b\u0430\u0440\u0443": 5669,
  "rive": 5670,
  "ational": 5671,
  "atre": 5672,
  "\u2581\u0443\u0434\u043e\u0431": 5673,
  "\u2581\u0412\u043b\u0430\u0434\u0438\u043c\u0438\u0440": 5674,
  "\u2581minute": 5675,
  "\u2581).": 5676,
  "\u2581\u043d\u0438\u0447\u0435\u0433\u043e": 5677,
  "\u2581\u043a\u043b\u0430\u0441": 5678,
  "\u2581regional": 5679,
  "\u043f\u0440\u0435\u0434": 5680,
  "\u2581appro": 5681,
  "\u041e\u041d": 5682,
  "\u0435\u0434\u0438": 5683,
  "\u2581\u0415\u0440": 5684,
  "\u2581\u043a\u043e\u0442\u043e\u0440\u043e\u0439": 5685,
  "\u2581\u0420\u0410": 5686,
  "\u0436\u0438\u0442\u0435": 5687,
  "\u258193": 5688,
  "\u2581self": 5689,
  "\u0432\u0438\u044f": 5690,
  "\u043d\u0438\u043a\u0430\u043c\u0438": 5691,
  "\u0448\u0442\u0443": 5692,
  "\u2581\u043c\u0438\u0440": 5693,
  "./": 5694,
  "ping": 5695,
  "\u2581compos": 5696,
  "itude": 5697,
  "\u2581rapid": 5698,
  "\u2581\u043a\u0440\u0430\u0441\u0438": 5699,
  "\u2581(17": 5700,
  "\u2581\u0433\u043e\u0442\u043e": 5701,
  "\u258179": 5702,
  "\u2581Hill": 5703,
  "\u2581\u043f\u0440\u043e\u0446\u0435\u043d": 5704,
  "\u2581\u0435\u0432\u0440\u043e": 5705,
  "81": 5706,
  "\u0432\u0430\u0442\u044c\u0441\u044f": 5707,
  "\u0441\u0442\u0432\u0443\u0435\u0442": 5708,
  "omes": 5709,
  "\u0445\u043e\u0434\u0430": 5710,
  "\u2581\u0446\u0430\u0440": 5711,
  "\u2581size": 5712,
  "\u2581saf": 5713,
  "\u2581jun": 5714,
  "\u2581\u0436\u0438\u043b": 5715,
  "\u2581\u043e\u043a\u0430": 5716,
  "\u2581DC": 5717,
  "\u258187": 5718,
  "\u0431\u0435\u043a": 5719,
  "\u2581\u0446\u0435\u043b": 5720,
  "\u2581\u043c\u0438\u043d\u0443\u0442": 5721,
  "\u2581\u043c\u0443\u043d\u0438\u0446\u0438\u043f\u0430": 5722,
  "\u258181": 5723,
  "\u0439\u0434\u0435": 5724,
  "\u2581rece": 5725,
  "!\u00bb": 5726,
  "\u2581Cit": 5727,
  "?.": 5728,
  "\u2581\u0437\u0430\u0445\u043e": 5729,
  "\u2581\u043f\u043e\u044f\u0432\u0438": 5730,
  "\u2581BMW": 5731,
  "\u2581give": 5732,
  "\u0441\u0442\u0443\u043f\u0438": 5733,
  "\u0441\u044f\u0442": 5734,
  "\u2581camera": 5735,
  "\u2581gain": 5736,
  "\u2581\u043f\u043e\u043b\u044c\u0437\u043e\u0432\u0430": 5737,
  "\u0441\u0438\u043b": 5738,
  "\u0442\u0435\u043b\u044c\u043d\u044b\u0445": 5739,
  "\u0440\u043e\u0437": 5740,
  "lain": 5741,
  "\u2581\u0432\u043e\u0435\u043d": 5742,
  "24.": 5743,
  "\u0447\u043d\u0438\u043a": 5744,
  "\u2581\u043f\u0430\u0440\u0438": 5745,
  "\u2581\u043c\u043b\u0430": 5746,
  "\u2581(\u00ab": 5747,
  "\u0433\u0430\u043c": 5748,
  "\u2581Last": 5749,
  "\u2581\u0434\u0435\u043f\u0443\u0442\u0430": 5750,
  "\u2581\u043a\u043e\u0433\u043e": 5751,
  "cept": 5752,
  "\u2581\u0440\u0435\u0430": 5753,
  "\u0433\u043b\u044f\u0434": 5754,
  "crip": 5755,
  "\u2581Sky": 5756,
  "\u2581\u0417\u043d\u0430": 5757,
  "\u2581\u0444\u043e\u043d": 5758,
  "\u2581flex": 5759,
  "\u0433\u043e\u0439": 5760,
  "\u2581\u044d\u043d\u0435\u0440": 5761,
  "\u2581\u0441\u043c\u0435\u0440": 5762,
  "\u0431\u043e\u0439": 5763,
  "\u2581\u0440\u0430\u043c\u043a\u0430\u0445": 5764,
  "\u2581\u043c\u0443\u0437\u0435": 5765,
  "\u2581compon": 5766,
  "gle": 5767,
  "\u2581\u043f\u0438\u0448\u0435": 5768,
  "\u258115-": 5769,
  "\u2581demon": 5770,
  "\u2581\u0441\u0442\u0430\u043b\u0430": 5771,
  "\u2581front": 5772,
  "\u2581\u043d\u0430\u0440": 5773,
  "\u2581\u0434\u0440\u0430": 5774,
  "alk": 5775,
  "\u2581\u043f\u0440\u043e\u0438\u0437\u0432\u043e": 5776,
  "\u0434\u0430\u043a": 5777,
  "\u043d\u0435\u0442\u0430": 5778,
  "\u0448\u043e\u0433\u043e": 5779,
  "reen": 5780,
  "CP": 5781,
  "\u2581\u041e\u0441\u043d\u043e": 5782,
  "\u2581\u043f\u0430\u0434\u0430": 5783,
  "unds": 5784,
  "\u2581Richard": 5785,
  "\u2581appar": 5786,
  "\u0449\u0438\u0439": 5787,
  "\u2581\u0441\u043e\u0432\u0440\u0435\u043c\u0435\u043d": 5788,
  "\u2581Comp": 5789,
  "\u00bb-": 5790,
  "\u2581\u043e\u0431\u044a\u044f": 5791,
  "\u043b\u0438\u0439": 5792,
  "\u2581\u0411\u0435\u0437": 5793,
  "\u2581\u041d\u043e\u0432\u043e": 5794,
  "\u2581hop": 5795,
  "\u2581\u0431\u0430\u0437\u0430": 5796,
  "\u0431\u0438\u043b\u0438": 5797,
  "\u043a\u0430\u043d\u0430": 5798,
  "\u0440\u044b\u043c\u0430": 5799,
  "\u2581restaurant": 5800,
  "\u0433\u043e\u0442": 5801,
  "\u2581declar": 5802,
  "\u041c\u0418": 5803,
  "\u2581\u0434\u0438\u0440\u0435\u043a\u0442\u043e\u0440": 5804,
  "\u2581\u043f\u043e\u0440": 5805,
  "6-": 5806,
  "\u043a\u043e\u043c\u0443": 5807,
  "\u2581objec": 5808,
  "\u2581\u0441\u0442\u0430\u0442\u044c": 5809,
  "\u0441\u043a\u043e\u0435": 5810,
  "\u2581interv": 5811,
  "\u2581\u0446\u0435\u043d\u0430": 5812,
  "\u043a\u043e\u043b\u0430": 5813,
  "\u2581\u0442\u0430\u0439": 5814,
  "\u043f\u0440\u0430\u0432\u0438": 5815,
  "\u2581\u0434\u0440\u0435": 5816,
  "\u041a\u0418": 5817,
  "\u2581\u043e\u043a": 5818,
  "elling": 5819,
  "\u2581Mini": 5820,
  "\u2581\u0443\u0447\u0430\u0441\u0442\u0438\u0435": 5821,
  "\u2581note": 5822,
  "\u0432\u0438\u0442\u044c": 5823,
  "\u2581cell": 5824,
  "\u2581\u0444\u0438\u043d\u0430\u043d\u0441\u043e": 5825,
  "\u2581\u0441\u043f\u0440\u0435": 5826,
  "\u2581\u0436\u0438\u0432\u0435": 5827,
  "\u2581\u0440\u0430\u0441\u0442\u0435": 5828,
  "\u2581\u043a\u0430\u0447\u0435": 5829,
  "\u2581them": 5830,
  "\u2581\u0430\u0433\u0435\u043d\u0442": 5831,
  "\u2581\u043f\u043e\u0432\u044b": 5832,
  "\u0442\u0430\u043b\u0438": 5833,
  "\u2581\u0447\u0430\u0441\u0442\u044c": 5834,
  "\u0430\u043d\u0434": 5835,
  "-25": 5836,
  "\u2581quant": 5837,
  "\u2581\u0441\u043b\u0443\u0447\u0430\u0439": 5838,
  "\u2581RA": 5839,
  "\u0441\u0438\u043b\u0438": 5840,
  "\u2581\u0434\u0435\u043b\u0430\u0442\u044c": 5841,
  "\u2581must": 5842,
  "\u2581\u0435\u043b": 5843,
  "\u0433\u0440\u0438": 5844,
  "\u0434\u0435\u043d\u0438\u044f": 5845,
  "\u2581\u0441\u0438\u0441\u0442\u0435\u043c\u044b": 5846,
  "\u2581\u0434\u043e\u0441\u0442\u0430\u0442\u043e\u0447\u043d\u043e": 5847,
  "cket": 5848,
  "\u2581(12": 5849,
  "\u2581\u041e\u043d\u0430": 5850,
  "\u2581regular": 5851,
  "\u2581Econom": 5852,
  "\u2581\u043d\u043e\u0432": 5853,
  "\"-": 5854,
  "\u043d\u0443\u0442\u044c": 5855,
  "\u2581\u043a\u0430\u0442\u0430": 5856,
  "ives": 5857,
  "\u2581\u043a\u0430\u0434": 5858,
  "\u0436\u0430\u0442\u044c": 5859,
  "\u043d\u0435\u0432": 5860,
  ".07.": 5861,
  "\u2581\u0439\u043e": 5862,
  "\u2581\u043f\u0430\u0440\u0442": 5863,
  "\u0442\u043d\u044b\u0445": 5864,
  "\u0441\u0442\u0440\u043e\u0439": 5865,
  "\u2581\u0411\u0430\u0440": 5866,
  "\u0445\u043e\u0432\u0430": 5867,
  "\u2581\u043f\u0440\u0435\u0434\u043e": 5868,
  "\u2581\u0441\u0432\u044f\u0437\u0438": 5869,
  "\u2581Loc": 5870,
  "\u0432\u043d\u043e\u0439": 5871,
  "\u2581\u0440\u0430\u0431\u043e\u0442\u0443": 5872,
  "\u2581\u0444\u043e\u0440": 5873,
  "field": 5874,
  "\u2581\u043e\u043f\u0440\u0435\u0434\u0435": 5875,
  "\u2581\u0442\u0430\u043a\u0438\u0435": 5876,
  "\u0447\u0430\u0441": 5877,
  "\u2581\u043f\u0440\u0435\u0434\u0430": 5878,
  "\u2581\u0442\u0440\u0430\u043d\u0441": 5879,
  "\u0431\u0430\u043b": 5880,
  "\u2581Secret": 5881,
  "\u0440\u0430\u043c\u0438": 5882,
  "\u2581\u043d\u0430\u0448\u0438\u0445": 5883,
  "aper": 5884,
  "\u2581respect": 5885,
  "\u2581\u0437\u0430\u043f\u043b\u0430": 5886,
  "\u2581Good": 5887,
  "\u2581\u0434\u0435\u0440\u0436\u0430": 5888,
  "\u0441\u0430\u0445": 5889,
  "\u0436\u0435\u0442\u0435": 5890,
  "oug": 5891,
  "\u2581\u0421\u0430\u043d\u043a\u0442": 5892,
  "\u2581\u0437\u0430\u0432": 5893,
  "\u2581\u0443\u0439": 5894,
  "\u2581cours": 5895,
  "\u043c\u0435\u0440\u0430": 5896,
  "\u2581\u0442\u0430\u043a\u043e\u0435": 5897,
  "\u2581estim": 5898,
  "\u0439\u043c\u0430": 5899,
  "\u043a\u0443\u043b\u044c": 5900,
  "\u0431\u043e\u043c": 5901,
  "\u0435\u0445\u0430": 5902,
  "\u2581\u0442\u0435\u0445\u043d\u0438\u043a\u0430": 5903,
  "\u0436\u0438\u043d": 5904,
  "\u25813-4": 5905,
  "5-": 5906,
  "ests": 5907,
  "\u0420\u0430": 5908,
  "\u2581\u0433\u0440\u0443\u043f": 5909,
  "\u043f\u0430\u0442": 5910,
  "\u2581event": 5911,
  "viv": 5912,
  "\u0421\u043e": 5913,
  "\u2581\u041d\u0415": 5914,
  "\u2581\u0437\u0432\u0435\u0440": 5915,
  "\u2581exclus": 5916,
  "\u043d\u0430\u0447\u0430": 5917,
  "\u2581perfect": 5918,
  "\u0431\u0430\u0442": 5919,
  "ances": 5920,
  "\u2581\u0433\u043e\u0441\u0443\u0434\u0430\u0440\u0441\u0442\u0432\u0435\u043d": 5921,
  "\u2581\u043a\u0430\u0436\u0434\u044b\u0439": 5922,
  "\u2581black": 5923,
  "\u2581buy": 5924,
  "\u0440\u0435\u043c": 5925,
  "\u2581\u0441\u043a\u043b\u0430\u0434\u0430": 5926,
  "\u2581\u043f\u0438\u0442\u0430": 5927,
  "\u0448\u0443\u044e": 5928,
  "\u2581possibil": 5929,
  "\u0412\u0438": 5930,
  "\u2581\u043a\u0438\u043b\u043e": 5931,
  "\u2581\u043a\u043e\u043d\u0441\u0443": 5932,
  "\u043e\u0445": 5933,
  "\u2581\u044e\u0440\u0438\u0434\u0438": 5934,
  "\u0432\u0440\u0430": 5935,
  "\u2581\u0440\u0430\u0437\u0432\u0438\u0442\u0438\u044f": 5936,
  "iting": 5937,
  "\u2581\u0432\u0435\u0431": 5938,
  "\u2581\u0442\u0443\u0440\u0430": 5939,
  "\u0441\u043b\u044f": 5940,
  "\u25811930": 5941,
  "\u2581\u043a\u043e\u043d\u0444\u0435\u0440\u0435\u043d": 5942,
  "\u2581\u0421\u0421\u0421\u0420": 5943,
  "\u2581distr": 5944,
  "\u0433\u043e\u043b\u043e": 5945,
  "\u2581\u0415\u0432\u0440\u043e": 5946,
  "\u2581\u0441\u043b\u0443\u0447\u0430": 5947,
  "\u2581volunt": 5948,
  "\u043c\u0435\u043d\u0442\u044b": 5949,
  "cent": 5950,
  "\u2581styl": 5951,
  "\u2581\u0443\u0440\u0430": 5952,
  "\u2581\u0421\u0432\u0435": 5953,
  "\u043a\u043e\u0440": 5954,
  "\u2581minimum": 5955,
  "\u0443\u043b\u0433\u0430": 5956,
  "\u2581\u0418\u0445": 5957,
  "\u2581\u0434\u043d\u0435\u0439": 5958,
  "\u0440\u0430\u0433": 5959,
  "\u2581\u041f\u0430\u0440": 5960,
  "\u2581\u0444\u0435\u0441\u0442\u0438": 5961,
  "\u2581\u0410\u0443": 5962,
  "\u2581\u0432\u0437": 5963,
  "\u043d\u0430\u043c\u0430": 5964,
  "\u2581love": 5965,
  "\u2581\u043f\u043e\u043b\u0443\u0447\u0438\u0442\u044c": 5966,
  "\u2581\u0447\u0438\u0441\u043b\u0435": 5967,
  "\u043f\u0430\u043a": 5968,
  "\u2581\u043f\u043e\u0442\u0440\u0435": 5969,
  "\u2581\u043f\u043b\u0435": 5970,
  "\u2581Transport": 5971,
  "\u25819-": 5972,
  "\u2581\u043e\u0431\u044a": 5973,
  "\u2581rank": 5974,
  "\u0434\u043d\u044f": 5975,
  "\u2581\u0446\u0435\u043b\u0438": 5976,
  "\u2581\u043f\u043e\u043c\u0435": 5977,
  "\u0447\u0438\u043d\u0438": 5978,
  "\u2581\u0437\u0435\u043c\u0435": 5979,
  "\u043b\u043e\u043a": 5980,
  "\u0442\u043e\u0440\u044b": 5981,
  "\u0420\u043e": 5982,
  "\u044e\u0449\u0435\u0439": 5983,
  "\u258112-": 5984,
  "\u2581\u043e\u043a\u0440\u0443": 5985,
  "\u2581Sony": 5986,
  "ington": 5987,
  "\u043b\u0438\u0442\u0438": 5988,
  "\u2581\u041f\u043b\u0430": 5989,
  "erson": 5990,
  "\u2581\u0442\u0435\u0445\u043d\u043e\u043b\u043e\u0433\u0438": 5991,
  "\u2581\u0441\u0438\u0441\u0442\u0435": 5992,
  "\u0433\u043e\u043c": 5993,
  "\u0437\u0430\u043c": 5994,
  "\u2581\u0410\u0432\u0442\u043e": 5995,
  "\u2581Will": 5996,
  "\u2581photo": 5997,
  "\u2581tw": 5998,
  "\u2581\u043d\u0430\u043f\u0430": 5999,
  "\u2581national": 6000,
  "\u2581\u0440\u0430\u0441\u0441\u043a\u0430": 6001,
  "\u0434\u0438\u0438": 6002,
  "\u0412\u0415": 6003,
  "\u2581\u0443\u043d\u044b": 6004,
  "\u2581\u043d\u0430\u043c\u0435": 6005,
  "\u2581Manchester": 6006,
  "\u2581Studio": 6007,
  "\u2581\u0420\u043e\u0441\u0441\u0438\u0439\u0441\u043a\u043e\u0439": 6008,
  "\u0414\u0430": 6009,
  "\u2581\u0435\u0441\u0442\u0435": 6010,
  "\u043b\u044b\u0445": 6011,
  "\u2581\u043e\u0442\u0440\u0430": 6012,
  "++": 6013,
  "\u0436\u043d\u044b\u0445": 6014,
  "\u0444\u0443": 6015,
  "\u2581\u043a\u043b\u044e": 6016,
  "try": 6017,
  "\u0448\u0430\u043d": 6018,
  "\u043c\u0430\u043c": 6019,
  "\u0434\u043e\u043d": 6020,
  "\u2581client": 6021,
  "\u2581card": 6022,
  "\u2581Publ": 6023,
  "\u2581Suk": 6024,
  "\u0442\u0430\u043b\u044c": 6025,
  "\u0434\u0436\u0435": 6026,
  "\u2581\u043a\u043e\u0435": 6027,
  "\u0447\u0438\u0439": 6028,
  "\u2581\u043e\u0434\u043d\u043e\u0439": 6029,
  "\u0410\u041b": 6030,
  "\u2581adop": 6031,
  "\u2581back": 6032,
  "\u2581\u043e\u0434\u0435": 6033,
  "\u0444\u0438\u044f": 6034,
  "pression": 6035,
  "\u0440\u0436\u0430": 6036,
  "\u0434\u0443\u043c\u0430": 6037,
  "\u0412\u0418": 6038,
  "\u2581\u043b\u0438\u0447\u043d\u043e": 6039,
  "\u2581\u043e\u0431\u0432\u0438": 6040,
  "\u2581\u043f\u0440\u043e\u0448": 6041,
  "\u2581adapt": 6042,
  "\u2581\u0438\u043d\u0441\u0442\u0440\u0443": 6043,
  "\u0447\u0435\u0441\u0442\u0432\u043e": 6044,
  "\u0440\u043e\u0434\u0438": 6045,
  "\u2581Glas": 6046,
  "\u043d\u043a\u0430": 6047,
  "\u2581\u0432\u043a\u043b\u044e\u0447\u0430": 6048,
  "\u2581\u043a\u0430\u0444\u0435": 6049,
  "\u2581\u0441\u043d\u0430": 6050,
  "\u2581\u0424\u0435\u0434\u0435\u0440\u0430\u0446\u0438\u0438": 6051,
  "\u044e\u0441\u044c": 6052,
  "\u2581\u0447\u0435\u0433\u043e": 6053,
  "\u2581\u044d\u0442\u0438\u0445": 6054,
  "\u2581Premier": 6055,
  "ural": 6056,
  "\u043a\u0438\u043c\u0438": 6057,
  "\u0437\u0430\u0446\u0438\u044f": 6058,
  "\u043c\u043d\u0438": 6059,
  "\u0432\u0430\u043b\u0435": 6060,
  "\u2581private": 6061,
  "\u0442\u0435\u0445": 6062,
  "2.0": 6063,
  "\u2581\u043d\u0435\u0434\u043e\u0441\u0442\u0430": 6064,
  "\u2581\u043f\u043e\u0441\u0430": 6065,
  "\u258111-": 6066,
  "\u2581\u043d\u043e\u0441\u0438": 6067,
  "\u0440\u0435\u043d\u0430": 6068,
  "\u2581wet": 6069,
  "\u2581\u0431\u0440\u0435": 6070,
  "\u2581\u041a\u0430\u043d": 6071,
  "\u2581\u0414\u043e\u0431": 6072,
  "\u2581support": 6073,
  "\u2581aid": 6074,
  "\u2581\u0430\u043f\u043e": 6075,
  "\u2581cra": 6076,
  "\u2581\u0440\u0430\u0441\u043f\u043e": 6077,
  "\u2581\u0431\u0435\u0441": 6078,
  "\u2581turn": 6079,
  "\u2581\u0438\u0434": 6080,
  "\u2581\u0431\u043e\u043b\u0435": 6081,
  "mitt": 6082,
  "\u2581\u043a\u0430\u043c": 6083,
  "\u0435\u0440\u0443": 6084,
  "\u2581\u0431\u0435\u0439": 6085,
  "\u0430\u043d\u044b": 6086,
  "\u2581PRO": 6087,
  "\u2581\u0442\u0435\u0447\u0435\u043d\u0438\u0435": 6088,
  "\u2581\u043d\u0430\u0439\u0442\u0438": 6089,
  "\u0440\u0438\u043e": 6090,
  "\u043d\u0438\u0446\u0435": 6091,
  "\u2581105": 6092,
  "\u2581\u043a\u043b\u0438\u0435\u043d": 6093,
  "\u2581scen": 6094,
  "\u0431\u0443\u0440\u0433": 6095,
  "\u0447\u0435\u0439": 6096,
  "cking": 6097,
  "\u2581XVI": 6098,
  "\u2581\u043f\u0440\u0438\u043b\u0438": 6099,
  "ject": 6100,
  "\u2581fle": 6101,
  "\u2581230": 6102,
  "\u2581\u0432\u043e\u0439": 6103,
  "\u2581Server": 6104,
  "\u2581\u0434\u0443\u0445\u043e": 6105,
  "\u2581\u0441\u0430\u043c\u044b\u0445": 6106,
  "\u0436\u0438\u0442": 6107,
  "XX": 6108,
  "\u2581\u043a\u0430\u0434\u0435": 6109,
  "\u2581Time": 6110,
  "\u2581\u043f\u0430\u0440\u0442\u0438": 6111,
  "\u2581\u043f\u043e\u0437": 6112,
  "\u043f\u043a\u0430": 6113,
  "\u2581\u0431\u043b\u043e": 6114,
  "\u2581\u043f\u0440\u043e\u0444\u0435": 6115,
  "\u2581\u0440\u0435\u0448\u0435\u043d\u0438\u044f": 6116,
  "\u2581\u0437\u0438": 6117,
  "\u2581Lot": 6118,
  "\u2581\u0441\u0435\u043c\u0435\u0439": 6119,
  "\u2581\u043f\u0440\u0438\u043d\u0446\u0438": 6120,
  "\u0431\u043b\u044f": 6121,
  "SD": 6122,
  "iev": 6123,
  "aning": 6124,
  "\u2581\u0426\u0435\u043d": 6125,
  "\u2581\u0432\u0430\u0440": 6126,
  "\u2581State": 6127,
  "\u2581\u043c\u0438\u0440\u0430": 6128,
  "\u2581mix": 6129,
  "\u2581Fund": 6130,
  "\u2581depart": 6131,
  "anding": 6132,
  "\u2581\u0441\u043e\u0432\u0435\u0442": 6133,
  "\u0442\u0432\u043e\u0440": 6134,
  "\u2581\u0434\u043e\u0432\u043e": 6135,
  "\u2581\u0441\u0442\u043e\u0440\u043e\u043d\u044b": 6136,
  "\u043f\u043e\u043c": 6137,
  "eshi": 6138,
  "\u2581Olym": 6139,
  "\u2581Watch": 6140,
  "\u2581VII": 6141,
  "\u2581\u0438\u0437\u0432\u0435\u0441\u0442": 6142,
  "ills": 6143,
  "\u043b\u043e\u0436\u0438": 6144,
  "\u0448\u0430\u0439": 6145,
  "\u2581\u0438\u0441\u043f\u043e": 6146,
  "\u0432\u0430\u0436\u0430": 6147,
  "\u2581\u043a\u043e\u043c\u043f": 6148,
  "-01": 6149,
  "EX": 6150,
  "\u2581\u043a\u043e\u043d\u043a\u0443\u0440\u0435\u043d": 6151,
  "\u2581\u043d\u043e\u043c\u0435\u0440": 6152,
  "\u258180%": 6153,
  "\u2581\u043a\u0430\u043a\u043e\u0439": 6154,
  "\u2581\u0432\u043e\u0437\u043c\u043e\u0436\u043d\u043e": 6155,
  "\u2581accept": 6156,
  "\u0438\u043b\u0438": 6157,
  "\u2581\u043f\u043e\u0438": 6158,
  "\u2581\u041d\u0410\u0422\u041e": 6159,
  "\u043c\u043e\u0433\u043e": 6160,
  "\u2581\u0425\u0438": 6161,
  "\u043a\u043b\u0443": 6162,
  "\u2581discipl": 6163,
  "ists": 6164,
  "!.": 6165,
  "\u2581\u0411\u043e\u0433": 6166,
  "\u2581\u0443\u0440\u043e": 6167,
  "\u2581\u043e\u0444\u0438": 6168,
  "\u043b\u044d": 6169,
  "\u2581preg": 6170,
  "\u2581240": 6171,
  "\u2581\u043c\u0435\u0442\u043e\u0434\u0438": 6172,
  "ology": 6173,
  "\u2581\u043a\u0440\u0443\u043f": 6174,
  "\u2581Corn": 6175,
  "\u2581\u0444\u0443\u0442\u0431\u043e": 6176,
  ".08.": 6177,
  "\u041a\u0438": 6178,
  "\u2581\u0421\u0410": 6179,
  "\u0436\u0430\u0439": 6180,
  "\u2581talent": 6181,
  "\u2581deleg": 6182,
  "\u2581\u0441\u043e\u0441\u0442\u043e\u044f": 6183,
  "\u2581\u043f\u0440\u0430\u0432\u0438\u043b\u0430": 6184,
  "\u0432\u0440\u043e": 6185,
  "\u2581\u041f\u043e\u044d\u0442\u043e\u043c\u0443": 6186,
  "\u2581\u0432\u0435\u0434\u044c": 6187,
  "\u2581Care": 6188,
  "icer": 6189,
  "\u0444\u043e\u043d": 6190,
  "Web": 6191,
  "\u0442\u0443\u0440\u0443": 6192,
  "900": 6193,
  "\u2581\u0432\u0441\u0442\u0440\u0435": 6194,
  "\u0421\u0418": 6195,
  "\u0433\u043e\u0432\u043e\u0440": 6196,
  "\u2581Jones": 6197,
  "ibre": 6198,
  "\u2581\u043f\u043e\u0434\u0434\u0435\u0440": 6199,
  "\u2581\u0412\u0443": 6200,
  "\u0434\u043a\u0430": 6201,
  "pris": 6202,
  "\u043d\u0435\u0441": 6203,
  "7-": 6204,
  "\u2581\u0441\u0430\u043b": 6205,
  "wood": 6206,
  "\u2581\u0432\u0437\u044f": 6207,
  "\u2581\u043a\u043b\u0443\u0431": 6208,
  "\u2581\u0433\u0440\u0430\u0436\u0434\u0430": 6209,
  "\u0432\u0438\u0434": 6210,
  "\u2581\u0434\u0430\u0432\u0430": 6211,
  "\u0442\u043e\u043f": 6212,
  "\u0447\u0430\u0441\u0442": 6213,
  "\u2581White": 6214,
  "\u2581\u041f\u043e\u0440": 6215,
  "\u0432\u043e\u0434\u0430": 6216,
  "\u2581\u0418\u043d\u0442\u0435\u0440\u043d\u0435\u0442": 6217,
  "\u2581conserv": 6218,
  "\u25811988": 6219,
  "\u2581\u0434\u043e\u043b\u0433\u043e": 6220,
  "\u2581name": 6221,
  "\u2581school": 6222,
  "\u0434\u0438\u0442": 6223,
  "\u0441\u043c\u043e": 6224,
  "\u0432\u0435\u043d\u043e": 6225,
  "\u2581\u0431\u0440\u0438": 6226,
  "\u2581\u0441\u043d\u0438": 6227,
  "\u2581satis": 6228,
  "\u2581Mail": 6229,
  "\u2581\u0442\u0430\u043a\u043e\u0433\u043e": 6230,
  "\u0442\u0440\u043e\u0432": 6231,
  "\u2581\u043c\u0435\u043d\u0435\u0435": 6232,
  "\u0440\u043e\u0432\u0430\u043d\u0438\u0435": 6233,
  "\u0440\u0435\u043d\u0438\u0435": 6234,
  "\u2581\u0434\u0435\u043d\u044c\u0433\u0438": 6235,
  "\u0414\u0415": 6236,
  "\u2581\u043e\u0431\u043b\u0438": 6237,
  "\u2581revolu": 6238,
  "\u043a\u0435\u0442": 6239,
  "\u043a\u0430\u0440\u0430": 6240,
  "\u2581\u0445\u043e\u0440\u043e\u0448\u043e": 6241,
  "\u043c\u043d\u0430": 6242,
  "\u2581\u044d\u0444\u0444\u0435\u043a\u0442\u0438\u0432": 6243,
  "\u0414\u043e": 6244,
  "\u2581\u0430\u043d\u0430\u043b\u0438": 6245,
  "\u2581\u0434\u043e\u043a": 6246,
  "\u0422\u0423": 6247,
  "\u044e\u0449\u0438\u043c": 6248,
  "\u2581\u043f\u0440\u043e\u0446\u0435\u0434\u0443": 6249,
  "\u2581links": 6250,
  "\u2581\u0447\u0435\u043b\u043e\u0432\u0435": 6251,
  "\u2581\u0443\u0431\u0435": 6252,
  "\u2581\u0441\u043c\u0438": 6253,
  "\u043d\u0446\u0438": 6254,
  "\u2581\u0442\u0435\u043b\u0435\u0432\u0438": 6255,
  "\u043d\u0438\u0442\u044c": 6256,
  "\u0441\u0442\u0430\u0432\u043b\u044f": 6257,
  "\u2581\u0440\u0435\u0446\u0435\u043f": 6258,
  "\u043f\u0440\u0430\u0432\u043e": 6259,
  "\u2581Matt": 6260,
  "\u2581How": 6261,
  "\u2581\u0444\u0435\u0434\u0435\u0440\u0430": 6262,
  "\u043c\u0435\u043d\u0442\u0443": 6263,
  "\u2581\u0441\u0434\u0435\u043b\u0430": 6264,
  "\u2581\u043a\u0430\u0447\u0435\u0441\u0442\u0432\u0435": 6265,
  "\u2581\u0430\u0432\u0442\u043e\u043c\u043e\u0431\u0438": 6266,
  "ows": 6267,
  "\u2581\u043c\u0430\u044f": 6268,
  "\u2581Get": 6269,
  "\u2581\u043d\u0430\u0440\u043e\u0434\u0430": 6270,
  "\u2581\u043f\u0440\u0435\u0434\u0441\u0442\u0430\u0432\u043b\u044f": 6271,
  "\u2581enter": 6272,
  "\u2581\u043d\u0435\u044f": 6273,
  "\u2581Australia": 6274,
  "\u0431\u043d\u0430": 6275,
  "\u0448\u043b\u043e": 6276,
  "\u2581\u0442\u044b\u0441\u044f\u0447": 6277,
  "\u2581\u043b\u0435\u043a\u0430\u0440": 6278,
  "\u2581\u041a\u043e\u043c": 6279,
  "cell": 6280,
  "\u2581\u0441\u0442\u0430\u043d\u0434\u0430\u0440": 6281,
  "\u2581\u043f\u0440\u0438\u043c\u0435\u0440": 6282,
  "etting": 6283,
  "\u2581correspond": 6284,
  "\u2581\u0436\u0443\u0440\u043d\u0430\u043b\u0438": 6285,
  "\u2581\u0430\u0440\u0442\u0438": 6286,
  "\u2581\u0448\u0438\u0440\u043e": 6287,
  "\u2581\u0433\u0440\u0430\u0434\u0443": 6288,
  "\u2581weekend": 6289,
  "\u2581\u043a\u0443\u043b\u044c\u0442\u0443\u0440\u044b": 6290,
  "\u2581\u0441\u0438\u043b\u0430": 6291,
  "\u2581\u0441\u043e\u0431\u043e\u0439": 6292,
  "ugg": 6293,
  "\u0437\u0438\u0438": 6294,
  "\u043c\u0430\u043d\u0434\u0430": 6295,
  "\u2581Two": 6296,
  "\u2581\u043f\u043e\u043a\u0443\u043f": 6297,
  "\u2581\u041e\u0440": 6298,
  "\u2581\u0441\u0442\u0440\u0430\u043d\u044b": 6299,
  "\u2581\u043f\u043e\u043c\u043e\u0449\u044c\u044e": 6300,
  "01": 6301,
  "\u2581River": 6302,
  "\u043e\u0433\u0440\u0430": 6303,
  "\u0440\u043e\u0441": 6304,
  "\u2581\u0441\u0442\u0430\u0442\u0438": 6305,
  "\u2581June": 6306,
  "\u2581\u0434\u0440\u0443\u0433\u043e\u0439": 6307,
  "\u2581Invest": 6308,
  "osen": 6309,
  "\u2581\u0441\u0442\u043e\u043b\u0438": 6310,
  "\u043b\u0438\u0432\u0430": 6311,
  "\u2581\u041d\u0438\u043a\u043e": 6312,
  "\u041c\u0415": 6313,
  "acy": 6314,
  "\u2581\u043f\u0440\u044f": 6315,
  "\u2581assist": 6316,
  "\u2581\u0441\u0430\u0434\u0430": 6317,
  "ICE": 6318,
  "\u2581\u0434\u043e\u0433\u043e\u0432\u043e\u0440": 6319,
  "\u2581\u043f\u044f": 6320,
  "\u041b\u041e": 6321,
  "\u2581Blue": 6322,
  "\u25811.5": 6323,
  "\u2581\u0441\u0432\u043e\u0435\u0433\u043e": 6324,
  "\u0413\u041e": 6325,
  "\u2581\u0432\u044b\u0434\u0430": 6326,
  "\u2581128": 6327,
  "\u2581\u0432\u043d\u0435": 6328,
  "\u2581\u0433\u043e\u043b": 6329,
  "\u2581\u042d\u0440": 6330,
  "\u043c\u043f\u0430": 6331,
  "\u2581\u043e\u0431\u0449\u0438": 6332,
  "\u0442\u0435\u043b\u044c\u043d\u044b\u0435": 6333,
  "\u2581\u043d\u0435\u043c": 6334,
  "\u00a4": 6335,
  "\u0421\u0410": 6336,
  "\u043e\u043d\u044b": 6337,
  "\u2581gradu": 6338,
  "\u2581call": 6339,
  "\u2581\u0441\u043b\u0435\u0434\u0443\u0435\u0442": 6340,
  "\u2581\u0444\u0430\u0439": 6341,
  "\u2581\u0442\u0435\u0445\u043d\u043e\u043b\u043e\u0433\u0438\u044f": 6342,
  "\u2581\u0421\u041f": 6343,
  "\u043b\u044f\u0445": 6344,
  "\u25815%": 6345,
  "\u043b\u043b\u0438": 6346,
  "\u2581bath": 6347,
  "\u2581\u0421\u0430\u0439": 6348,
  "\u0436\u0434\u0435\u043d\u0438\u0435": 6349,
  "\u0435\u0448": 6350,
  "\u0412\u041e": 6351,
  "\u2581\u0437\u0430\u0441": 6352,
  "\u2581\u0411\u0430\u0448\u043a\u043e\u0440\u0442\u043e\u0441\u0442\u0430\u043d": 6353,
  "\u2581Simon": 6354,
  "\u0437\u043e\u043c": 6355,
  "\u258190%": 6356,
  "\u043a\u0443\u043b": 6357,
  "\u2581\u0427\u0443": 6358,
  "\u2581market": 6359,
  "\u2581chem": 6360,
  "\u2581sty": 6361,
  "\u2581101": 6362,
  "rant": 6363,
  "\u2581\u0436\u0430\u0440": 6364,
  "\u2581Any": 6365,
  "\u2581\u0441\u0443\u0449\u0435": 6366,
  "\u2581July": 6367,
  "\u2581\u043d\u0430\u043f\u0440\u044f": 6368,
  "\u2581\u043e\u0431\u044f": 6369,
  "\u2581\u043b\u0435\u043a": 6370,
  "\u2581\u0441\u0440\u0435\u0434\u0441\u0442\u0432": 6371,
  "\u2581\u0440\u0435\u043c\u043e\u043d\u0442": 6372,
  "unch": 6373,
  "\u2581\u0411\u0440\u0430": 6374,
  "\u2581fab": 6375,
  "\u2581\u0441\u0440\u0430\u0437\u0443": 6376,
  "\u0446\u0435\u0439": 6377,
  "\u2581\u043d\u0430\u0448\u0435\u0439": 6378,
  "\u0448\u0435\u0432": 6379,
  "\u0440\u0438\u0445": 6380,
  "\u2581\u0432\u0440\u0435": 6381,
  "\u2581\u043a\u0443\u043f\u0438": 6382,
  "\u043b\u044c\u043a\u043e": 6383,
  "\u2581Express": 6384,
  "\u2581\u0446\u0443": 6385,
  "\u2581XVIII": 6386,
  "\u2581\u043e\u0440\u0443": 6387,
  "\u043d\u0430\u0440\u043e\u0434": 6388,
  "\u2581rent": 6389,
  "\u2581January": 6390,
  "\u2581\u0418\u043b\u0438": 6391,
  "\u2581\u041a\u0440\u043e\u043c\u0435": 6392,
  "\u2581\u043e\u043f\u0440\u0435\u0434\u0435\u043b\u0435\u043d": 6393,
  "\u0434\u0443\u0442": 6394,
  "\u2581\u043a\u043b\u0443": 6395,
  "\u0411\u0438": 6396,
  "\u2581gard": 6397,
  "\u2581\u0444\u0438\u0440": 6398,
  "\u2581\u0442\u0435\u0431\u0435": 6399,
  "\u2581recent": 6400,
  "\u2581\u0448\u0438\u043d": 6401,
  "\u2581\u0434\u043e\u0433\u043e\u0432\u043e": 6402,
  "\u2581Add": 6403,
  "\u0434\u043a\u0438": 6404,
  "\u2581\u0441\u0442\u0430\u0440\u0430": 6405,
  "\u0434\u0435\u0440\u0436\u0430": 6406,
  "\u0440\u043e\u0432\u0438": 6407,
  "\u2581baby": 6408,
  "\u2581\u043c\u0435\u0445\u0430\u043d\u0438": 6409,
  "\u2581\u043e\u0432\u0435": 6410,
  "\u2581Mercedes": 6411,
  "\u2581conflic": 6412,
  "\u2581\u043f\u0430\u043c\u044f": 6413,
  "\u2581\u0436\u0443": 6414,
  "\u2581\u042f\u043f\u043e": 6415,
  "\u2581\u0421\u043f\u0435": 6416,
  "\u0440\u043e\u0438": 6417,
  "\u0449\u0438\u0435": 6418,
  "\u2581\u041d\u0438\u043a\u043e\u043b\u0430": 6419,
  "Co": 6420,
  "\u2581\u0414\u0410": 6421,
  "\u2581\u0438\u043d\u0434\u0438\u0432\u0438\u0434\u0443": 6422,
  "\u2581\u043e\u043a\u0440\u0443\u0433": 6423,
  "\u2581October": 6424,
  "\u2581\u0436\u0435\u043d\u0430": 6425,
  "SC": 6426,
  "\u2581\u043e\u0444\u043e\u0440\u043c": 6427,
  "\u2581\u0421\u0432\u0430": 6428,
  "\u258150-": 6429,
  "\u0433\u043b\u044f\u0434\u0430": 6430,
  "\u0442\u043a\u043e": 6431,
  "estion": 6432,
  "\u2581\u0442\u043e\u043b\u043a\u043e\u0432\u0430": 6433,
  "\u2581\u043d\u043e\u0440": 6434,
  "\u0440\u0438\u0430": 6435,
  "erial": 6436,
  "\u2581\u0442\u043e\u043b": 6437,
  "\u2581\u043a\u043d\u0438\u0433\u0438": 6438,
  "\u2581\u044d\u043a\u0441": 6439,
  "\u0441\u0442\u0438\u043d\u0430": 6440,
  "\u2581\u041c\u043e\u0436\u0435": 6441,
  "\u2581\u0443\u0432\u0430": 6442,
  "\u2581decor": 6443,
  "\u2581\u0442\u044b\u0441": 6444,
  "\u2581Museum": 6445,
  "\u0447\u0435\u0441\u043a\u0430\u044f": 6446,
  "\u2581\u0442\u043e\u0433\u0434\u0430": 6447,
  "\u2581\u043d\u0430\u0433\u0440\u0430": 6448,
  "\u2581elec": 6449,
  "\u0432\u043c\u0435": 6450,
  "\u2581\u0441\u043f\u043e\u0440": 6451,
  "150": 6452,
  "\u2581\u0412\u0430\u0440": 6453,
  "\u2581\u043e\u0442\u043d\u043e\u0448\u0435\u043d\u0438\u044f": 6454,
  "\u0440\u0441\u043a\u0438": 6455,
  "\u2581Old": 6456,
  "\u0434\u0430\u0442\u044c": 6457,
  "\u2581\u041a\u041e": 6458,
  "\u2581\u041f\u0443\u0442\u0438\u043d": 6459,
  "\u043b\u0435\u0436": 6460,
  "\u0447\u0438\u043a": 6461,
  "\u2581roll": 6462,
  "\u2581\u043f\u043e\u0432\u0438": 6463,
  "\u2581\u0432\u0443\u043b": 6464,
  "\u2581\u0437\u0430\u043a\u043e\u043d\u043e\u0434\u0430": 6465,
  "\u2581\u043f\u0440\u043e\u0431\u043b\u0435": 6466,
  "\u2581share": 6467,
  "\u2581Book": 6468,
  "\u2581\u044d\u043a\u0441\u043f\u0435\u0440": 6469,
  "\u2581\u041a\u043b\u0438": 6470,
  "\u2581Flash": 6471,
  "\u2581European": 6472,
  "\u2581individual": 6473,
  "\u2581mechan": 6474,
  "\u2581animal": 6475,
  "\u2581\u0429\u0435": 6476,
  "He": 6477,
  ".3": 6478,
  "\u2581Gard": 6479,
  "\u0441\u0442\u0432\u043e\u0432\u0430\u0442\u044c": 6480,
  "\u2581\u043e\u0433": 6481,
  "\u2581\u0414\u0440\u0430": 6482,
  "\u2581\u043f\u043e\u0441\u0442\u0430\u0432\u0438": 6483,
  "\u2581\u0430\u043b\u043c\u0430": 6484,
  "\u0429": 6485,
  "\u2581\u0426\u0430": 6486,
  "\u0411\u0435": 6487,
  "III": 6488,
  "\u0442\u0435\u043b\u044c\u043d\u043e\u0439": 6489,
  "\u2581\u0422\u044b": 6490,
  "\u2581\u0442\u0435\u0440\u0430": 6491,
  "\u2581\u043d\u043e\u0432\u043e\u0433\u043e": 6492,
  "\u2581\u0410\u043b\u0438": 6493,
  "\u0431\u0430\u0432\u0438": 6494,
  "\u0431\u0438\u0440": 6495,
  "\u2581\u043a\u0440\u0430\u044f": 6496,
  "\u2581\u0444\u0438\u043b\u044c": 6497,
  "\u2581\u0414\u0430\u043d": 6498,
  ".'": 6499,
  "\u2581\u0440\u0435\u0447\u0438": 6500,
  "\u2581tell": 6501,
  "\u043b\u0430\u0434\u0438": 6502,
  "\u2581complic": 6503,
  "\u0441\u0442\u0432\u0438\u044f": 6504,
  "aring": 6505,
  "\u2581\u043f\u0440\u0435\u043f\u043e": 6506,
  "\u2581\u043a\u0430\u043c\u043f\u0430": 6507,
  "leges": 6508,
  "\u2581East": 6509,
  "\u2581dang": 6510,
  "\u0447\u0438\u043b\u0438": 6511,
  "\u2581\u043f\u0440\u0435\u0434\u043c\u0435": 6512,
  "\u043c\u043f": 6513,
  "20.": 6514,
  "\u2581\u043f\u043e\u0433\u043e": 6515,
  "ods": 6516,
  "\u2581\u0422\u0430\u043c": 6517,
  "\u2581\u043c\u0430\u043d": 6518,
  "\u2581\u0442\u0430\u043a\u0438\u043c": 6519,
  "\u2581\u0432\u043e\u0434\u0435": 6520,
  "\u2581\u0421\u044b": 6521,
  "\u2581observ": 6522,
  "\u2581\u0440\u0430\u0434\u0430": 6523,
  "\u2581\u043c\u0435\u0434\u0438\u0446\u0438\u043d\u0430": 6524,
  "\u2581\u043f\u0440\u0435\u0437\u0438\u0434\u0435\u043d\u0442": 6525,
  "\u2581\u0432\u043e\u043e\u0431\u0449\u0435": 6526,
  "\u2581\u0412\u043e\u0442": 6527,
  "\u0433\u043e\u0440\u043e\u0434": 6528,
  "\u2581try": 6529,
  "\u0432\u0430\u043d\u044b": 6530,
  "\u2581This": 6531,
  "\u2581\u043b\u0438\u0431\u043e": 6532,
  "\u2581\u043f\u043e\u043a\u043e": 6533,
  "\u2581\u043a\u043e\u043d\u0442\u0440\u0430": 6534,
  "\u2581\u0440\u0435\u0430\u043a": 6535,
  "\u2581\u0434\u043e\u0432\u0435": 6536,
  "\u2581services": 6537,
  "\u2581confirm": 6538,
  "\u2581\u043a\u0443\u043f\u0438\u0442\u044c": 6539,
  "\u043f\u0435\u0442": 6540,
  "\u2581\u043f\u0443\u043d": 6541,
  "\u2581descri": 6542,
  "\u2581\u0443\u0441\u0435": 6543,
  "\u2581\u0440\u043e\u0434": 6544,
  "\u2581\u0448\u043a\u043e\u043b\u0430": 6545,
  "\u0433\u0438\u0438": 6546,
  "\u2581implic": 6547,
  "\u043e\u0433": 6548,
  "\u043a\u043e\u0432\u0435": 6549,
  "\u2581bik": 6550,
  "\u2581trav": 6551,
  "\u0430\u043b\u044c\u043d\u044b\u0439": 6552,
  "\u2581profit": 6553,
  "\u0445\u0430\u0440": 6554,
  "wers": 6555,
  "\u043d\u0442\u0430": 6556,
  "\u2581\u0431\u044b\u0441\u0442\u0440\u043e": 6557,
  "\u0437\u043e\u043d": 6558,
  "\u2581\u0441\u043e\u0441\u0442\u0430\u0432": 6559,
  "\u2581opt": 6560,
  "\u043b\u043e\u0436": 6561,
  "\u0441\u0446\u0435": 6562,
  "\u2581\u0436\u0435\u043b\u0435": 6563,
  "\u0442\u044b\u0433": 6564,
  "\u2581\u0441\u044e": 6565,
  "ords": 6566,
  "\u0448\u0435\u0433\u043e": 6567,
  "\u0439\u0434": 6568,
  "\u2581computer": 6569,
  "\u2581\u0444\u043e\u0440\u0443": 6570,
  "\u2581\u0440\u0435\u0434\u0430": 6571,
  "\u2581Shop": 6572,
  "\u2581\u044d\u043c": 6573,
  "\u2581\u0437\u0430\u0441\u0442\u0430": 6574,
  "illing": 6575,
  "\u0432\u0430\u043d\u0438": 6576,
  "\u2581\u043a\u0435\u0439": 6577,
  "\u0434\u043d\u043e\u0439": 6578,
  "\u2581URL": 6579,
  "\u2581\u0421\u0442\u0443": 6580,
  "\u2581subs": 6581,
  "\u0441\u0441\u0438\u044f": 6582,
  "\u2581\u0422\u0435\u0445": 6583,
  "\u2581\u043a\u043e\u043d\u0441\u0442\u0440\u0443\u043a": 6584,
  "\u043a\u0440\u044b": 6585,
  "\u0442\u0438\u043b\u0438": 6586,
  "pec": 6587,
  "\u2581box": 6588,
  "\u0441\u043d\u0443": 6589,
  "\u2581\u043e\u043f\u0438\u0441\u0430": 6590,
  "\u2581permanent": 6591,
  "\u2581\u0432\u0435\u0447\u0435\u0440": 6592,
  "\u2581Produc": 6593,
  "\u0445\u0438\u0439": 6594,
  "\u2581\u0441\u0442\u0440\u0430\u0445\u043e": 6595,
  "\u2581\u043f\u0440\u043e\u0444\u0438": 6596,
  "\u0437\u044b\u0432\u0430\u0435\u0442": 6597,
  "\u2581musical": 6598,
  "\u2581\u041f\u0420\u041e": 6599,
  "\u2581\u043a\u0433": 6600,
  "\u2581\u043a\u0443\u043b\u044c\u0442\u0443\u0440": 6601,
  "\u2581basis": 6602,
  "\u2581\u0440\u043e\u0441\u0441\u0438\u0439": 6603,
  "\u2581\u041c\u0410": 6604,
  "\u2581Nokia": 6605,
  "\u2581\u041d\u0430\u0443": 6606,
  "\u2581\u043b\u0435\u0433\u043a\u043e": 6607,
  "\u2581take": 6608,
  "\u2581\u0441\u043a\u0430\u0437\u0430": 6609,
  "\u2581\u0442\u0430\u0440": 6610,
  "\u2581\u0441\u043a": 6611,
  "\u2581\u0437\u0430\u0440\u0430": 6612,
  "\u0445\u043c\u0435": 6613,
  "\u0440\u043e\u0434\u043d\u043e": 6614,
  "\u2581\u043a\u0432\u0430\u043b\u0438": 6615,
  "\u2581\u0440\u0430\u0437\u0432\u0438\u0442\u0438\u0435": 6616,
  "\u2581\u043f\u043e\u0432\u0435\u0440": 6617,
  "\u2581arrang": 6618,
  "\u2581\u0414\u041e": 6619,
  "\u2581initi": 6620,
  "\u044e\u0449\u0435\u0433\u043e": 6621,
  "\u2581\u043c\u0438\u043d": 6622,
  "\u2581\u0443\u043f\u043e\u0442\u0440\u0435": 6623,
  "\u0441\u043e\u043a": 6624,
  "\u2581Dog": 6625,
  "\u2581\u041e\u0441\u043e": 6626,
  "\u2581four": 6627,
  "\u043b\u043b\u0430": 6628,
  "\u2581\u043f\u043e\u043b\u043e\u0432\u0438": 6629,
  "\u0434\u0435\u043b\u044c": 6630,
  "\u2581\u043a\u0440\u0435\u0434\u0438\u0442": 6631,
  "\u043a\u043b\u0430\u0434\u0430": 6632,
  "\u2581\u041c\u0438\u043d": 6633,
  "\u2581\u0410\u043c\u0435\u0440\u0438": 6634,
  "\u2581\u043a\u043e\u043b": 6635,
  "\u0410\u0422": 6636,
  "\u0447\u0442\u043e": 6637,
  "\u2581\u0443\u043c": 6638,
  "\u0440\u0438\u0442": 6639,
  "\u2581Health": 6640,
  "\u2581\u0438\u0441\u043f\u043e\u043b\u044c\u0437\u043e\u0432\u0430\u0442\u044c": 6641,
  "\u2581\u043a\u043e\u0442\u043e\u0440\u043e\u0435": 6642,
  "\u043f\u043b\u0435": 6643,
  "\u0442\u0438\u043a\u0438": 6644,
  "\u2581\u043f\u0440\u0435\u0434\u0443": 6645,
  "\u2581\u0434\u043e\u0441\u0442\u0430\u0432": 6646,
  "\u2581\u0442\u0435\u0440\u0440\u0438\u0442\u043e\u0440\u0438\u0438": 6647,
  "\u0448\u0430\u0442\u044c": 6648,
  "\u2581\u0441\u0440\u043e\u043a": 6649,
  "\u0441\u0438\u0442\u044c": 6650,
  "\u2581750": 6651,
  "\u0437\u0438\u0442": 6652,
  "\u25811984": 6653,
  "house": 6654,
  "\u0448\u043a\u0443": 6655,
  "\u2581\u0440\u0430\u0432\u043d\u043e": 6656,
  "\u2581Phil": 6657,
  "\u2581\u043f\u044b\u0442\u0430": 6658,
  "\u2581Daily": 6659,
  "\u2581\u0441\u0442\u0440\u0430\u043d\u0438\u0446\u0430": 6660,
  "\u0442\u043e\u0432\u0438": 6661,
  "\u2581made": 6662,
  "\u2581\u0442\u0435\u043b": 6663,
  "\u2581\u043d\u0435\u0441": 6664,
  "\u0432\u0435\u0437": 6665,
  "\u0420\u0435": 6666,
  "\u258118-": 6667,
  "\u2581\u0442\u0435\u043e": 6668,
  "\u2581act": 6669,
  "\u2581Union": 6670,
  "\u0440\u0438\u0444": 6671,
  "\u2581shop": 6672,
  "\u2581\u0447\u0430\u0441\u043e\u0432": 6673,
  "\u2581\u0438\u0441\u043a\u043b\u044e": 6674,
  "\u043b\u044c\u043d\u044b": 6675,
  "30.": 6676,
  "\u2581IX": 6677,
  "\u2581\u0442\u0435\u043c\u043f\u0435\u0440\u0430": 6678,
  "\u2581\u0441\u0442\u0430\u0442\u0443": 6679,
  "\u2581\u0437\u0430\u043a\u0430": 6680,
  "phone": 6681,
  "\u2581\u043a\u043e\u043d\u043a\u0443\u0440\u0441": 6682,
  "\u2581\u0438\u0433\u0440\u043e": 6683,
  "\u2581mental": 6684,
  "\u2581\u0430\u0432\u0442\u043e\u043c\u0430\u0442\u0438": 6685,
  "\u0442\u0438\u0445": 6686,
  "\u2581\u0441\u043d\u0435": 6687,
  "\u0431\u0438\u0442\u0435": 6688,
  "\u258170%": 6689,
  "\u2581\u0435\u043b\u0435": 6690,
  "\u2581\u0441\u0442\u0430\u043b\u0438": 6691,
  "\u2581anci": 6692,
  "\u2581subst": 6693,
  "\u2581(30": 6694,
  "\u043d\u044f\u044f": 6695,
  "\u0433\u0440\u043e": 6696,
  "\u0440\u0435\u043f": 6697,
  "\u258125-": 6698,
  "\u2581\u0438\u0437\u0432\u0435": 6699,
  "\u2581\u0413\u043e\u0440": 6700,
  "\u2581\u0412\u043b\u0430": 6701,
  "\u2581\u043f\u043b\u043e\u0449\u0430": 6702,
  "\u2581\u0411\u0430\u043d": 6703,
  "\u2581\u0446\u0432\u0435": 6704,
  "\u2581\u0430\u0434\u043c\u0438\u043d\u0438\u0441\u0442\u0440\u0430": 6705,
  "\u25810,5": 6706,
  "\u2581Personal": 6707,
  "\u258116-": 6708,
  "\u2581\u0432\u0430\u0448": 6709,
  "\u2581golf": 6710,
  "\u2581\u0434\u0435\u0442\u0435": 6711,
  "\u0442\u0430\u0436": 6712,
  "\u2581February": 6713,
  "\u2581\u0437\u0430\u044f\u0432\u0438": 6714,
  "\u0445\u0438\u043c": 6715,
  "\u2581Linux": 6716,
  "\u2581international": 6717,
  "\u0447\u0435\u0442": 6718,
  "\u0436\u0435\u043c": 6719,
  "uring": 6720,
  "orial": 6721,
  "\u0442\u043e\u0433\u043e": 6722,
  "\u25811/2": 6723,
  "\u0441\u043b\u043e\u0432": 6724,
  "\u2581familiar": 6725,
  "\u2581\u043c\u043b\u0440\u0434": 6726,
  "\u0431\u043d\u043e": 6727,
  "\u2581too": 6728,
  "erve": 6729,
  "\u258140%": 6730,
  "\u2581\u043f\u0440\u0430\u0432\u0438\u043b\u043e": 6731,
  "\u2581\u043c\u043e\u0439": 6732,
  "\u2581\u0442\u0435\u043f\u0435\u0440\u044c": 6733,
  "\u043b\u044f\u0440": 6734,
  "\u041d\u0421": 6735,
  "\u0445\u0432\u0430": 6736,
  "\u0440\u0443\u0435\u0442": 6737,
  "\u2581low": 6738,
  "\u2581\u0437\u0430\u0441\u043b\u0443": 6739,
  "\u0437\u043a\u0438": 6740,
  "ous": 6741,
  "\u2581\u043e\u0440\u0433\u0430\u043d": 6742,
  "ward": 6743,
  "\u2581stret": 6744,
  "\u2581\u0440\u0430\u0434\u043e": 6745,
  "\u2581\u043d\u0430\u0432\u0438": 6746,
  "\u2581Management": 6747,
  "\u2581\u043f\u043e\u0434\u0440\u043e\u0431": 6748,
  "\u0434\u0435\u043a": 6749,
  "\u2581\u0441\u043c\u0430": 6750,
  "\u041c\u041e": 6751,
  "\u2581\u041f\u0440\u0430\u0432\u0438": 6752,
  "\u2581\u0436\u0435\u043d": 6753,
  "\u2581\u0434\u043e\u043b\u0436\u043d\u043e": 6754,
  "\u0423\u041f": 6755,
  "\u2581\u043c\u0430\u043b\u0435\u043d\u044c": 6756,
  "\u2581\u043f\u0440\u0438\u0440\u043e\u0434": 6757,
  "\u2581America": 6758,
  "\u2581Ther": 6759,
  "\u2581\u043c\u043c": 6760,
  "\u2581\u0432\u0430\u043b\u044e": 6761,
  "\u043b\u0435\u0432": 6762,
  "\u043c\u0430\u043d\u0430": 6763,
  "\u0435\u0440\u0430": 6764,
  "\u2581\u043a\u043e\u0442\u043e\u0440\u043e\u0433\u043e": 6765,
  "\u043b\u0438\u0442": 6766,
  "\u2581collabor": 6767,
  "\u2581\u043e\u0447\u0435": 6768,
  "\u0442\u0435\u0442": 6769,
  "\u2581rais": 6770,
  "\u0440\u0438\u0442\u044c": 6771,
  "\u2581Cour": 6772,
  "\u2581\u044d\u0442\u0438\u043c": 6773,
  "\u2581\u0432\u0441\u044f": 6774,
  "\u2581\u043e\u0431\u0430": 6775,
  "\u043b\u0435\u0436\u0430": 6776,
  "\u2581\u043c\u0430\u0448\u0438\u043d\u0430": 6777,
  "ector": 6778,
  "\u2581\u0440\u0435\u0437\u0435\u0440": 6779,
  "\u2581\u043a\u043e\u043c\u043f\u043b\u0435\u043a\u0441": 6780,
  "\u2581\u0430\u0440\u0445\u0438": 6781,
  "ading": 6782,
  "\u2581\u043e\u0431\u0440\u0430\u0437\u043e\u0432\u0430\u043d\u0438\u044f": 6783,
  "\u043a\u0441\u0435": 6784,
  ")))": 6785,
  "\u2581\u0411\u0410": 6786,
  "\u2581\u0438\u0437\u0431\u0435": 6787,
  "\u2581\u0442\u0440\u0443\u0434\u043d\u043e": 6788,
  "\u2581minutes": 6789,
  "\u2581\u0447\u0430\u0441\u043e": 6790,
  "\u2581fans": 6791,
  "\u2581\u043f\u043e\u0441\u043b\u0430": 6792,
  "\u043b\u0435\u0448": 6793,
  "\u2581\u043f\u043e\u0437\u0432\u043e\u043b\u044f": 6794,
  "\u2581\u0442\u043e\u0447\u043a\u0438": 6795,
  "vision": 6796,
  ",.": 6797,
  "\u2581look": 6798,
  "\u2581\u043d\u0438\u043a\u043e": 6799,
  "\u0440\u043e\u0436": 6800,
  "\u0433\u043d\u043e": 6801,
  "\u2581Well": 6802,
  "\u2581\u0440\u0430\u0439\u043e\u043d\u0430": 6803,
  "\u2581\u043a\u0430\u0440\u0430": 6804,
  "\u2581\u0441\u0438\u043c\u0432\u043e": 6805,
  "\u2581\u0435\u0434\u0438": 6806,
  "\u2581210": 6807,
  "\u2581high": 6808,
  "\u2581implement": 6809,
  "\u043a\u0441\u0443": 6810,
  "\u2581Are": 6811,
  "\u2581\u0441\u043b\u0443\u0436\u0438": 6812,
  "\u2581\u0433\u043e\u0441\u0442\u0438": 6813,
  "\u0432\u0430\u043d\u0438\u0439": 6814,
  "\u0440\u043e\u043d\u0438": 6815,
  "\u043e\u043d\u0435": 6816,
  "\u2581\u0441\u0435\u043b\u044c": 6817,
  "\u2581fla": 6818,
  "\u0432\u043e\u0442": 6819,
  "\u2581\u0421\u0415": 6820,
  "\u2581\u043d\u0430\u0437\u044b\u0432\u0430": 6821,
  "\u2581\u0435\u0449\u0451": 6822,
  "\u2581\u0448\u043a\u043e\u043b\u0435": 6823,
  "\u0433\u0438\u0439": 6824,
  "\u2581excep": 6825,
  "\u2581),": 6826,
  "\u043b\u0438\u043a\u043e": 6827,
  "\u2581wall": 6828,
  "\u2581\u0442\u0443\u0440\u0438\u0441\u0442\u0438": 6829,
  "\u2581\u043f\u043e\u0431\u0430": 6830,
  "\u2581\u043d\u0430\u0441\u0435\u043b\u0435\u043d\u0438\u044f": 6831,
  "\u0441\u0442\u0432\u0435\u043d\u043d\u043e\u0439": 6832,
  "\u2581\u043b\u044e\u0431\u043e\u0439": 6833,
  "\u2581\u043f\u0440\u0435\u0441": 6834,
  "...,": 6835,
  "\u041f\u0430": 6836,
  "\u2581\u0441\u043b\u0443\u0447\u0438": 6837,
  "\u0430\u043b\u044c\u043d\u043e\u0433\u043e": 6838,
  "\u2581pain": 6839,
  "\u2581budget": 6840,
  "\u2581Intel": 6841,
  "\u2581letter": 6842,
  "\u2581\u0434\u0435\u043b\u0435": 6843,
  "\u2581\u0441\u043a\u0430\u0437\u0430\u0442\u044c": 6844,
  "\u2581\u043c\u043e\u0440": 6845,
  "\u0441\u0451": 6846,
  "\u2581\u0441\u0442\u0440\u0443\u043a": 6847,
  "\u2581\u043d\u0430\u0448\u0435\u043c": 6848,
  "\u2581Special": 6849,
  "\u2581\u043c\u0443\u0437\u044b": 6850,
  "\u2581\u0437\u0430\u0432\u0438": 6851,
  "\u258110:00": 6852,
  "\u2581\u0433\u0430\u0440\u0430": 6853,
  "tice": 6854,
  "\u2581print": 6855,
  "ther": 6856,
  "\u2581group": 6857,
  "\u2581\u043c\u0435\u0434\u0438\u0446\u0438": 6858,
  "\u25811200": 6859,
  "2009": 6860,
  "\u2581\u0441\u0438\u043d": 6861,
  "\u2581\u041d\u0435\u043c\u0430": 6862,
  "\u2581\u0431\u0438\u0440": 6863,
  "less": 6864,
  "\u0432\u0435\u0442\u0438": 6865,
  "\u2581\u0442\u0435\u043a\u0441\u0442": 6866,
  "ying": 6867,
  "\u2581\u043c\u0430\u0442\u0435\u043c\u0430\u0442\u0438": 6868,
  "\u0448\u0438\u0442\u0435": 6869,
  "\u0442\u0430\u043c\u0430": 6870,
  "\u2581\u043d\u043e\u0432\u044b\u0445": 6871,
  "\u2581\u0441\u0442\u0430\u043b\u043e": 6872,
  "\u2581\u044d\u043b\u0435\u043a": 6873,
  "\u2581\u0433\u043e\u043b\u043e\u0432": 6874,
  "\u2581\u0443\u0441\u043b\u0443\u0433": 6875,
  "\u2581\u043f\u0443\u0442": 6876,
  "\u2581area": 6877,
  "\u043b\u0438\u0431\u043e": 6878,
  "\u25811986": 6879,
  "uments": 6880,
  "\u0434\u0438\u0439": 6881,
  "\u2581Royal": 6882,
  "\u0446\u043e\u043c": 6883,
  "\u2581\u043a\u043e\u043c\u0438\u0442\u0435": 6884,
  "\u0433\u044d": 6885,
  "\u2581Audi": 6886,
  "\u2581Direc": 6887,
  "\u2581\u0432\u043e\u043f\u0440\u043e\u0441\u044b": 6888,
  "\u0434\u043e\u0445": 6889,
  "\u2581practic": 6890,
  "\u25811939": 6891,
  "\u043d\u043a\u0443": 6892,
  "\u2581\u0432\u0440\u0435\u0434": 6893,
  "\u0442\u0438\u043c\u0430": 6894,
  "\u2581Airport": 6895,
  "\u2581\u0442\u0435\u043c\u043f\u0435\u0440\u0430\u0442\u0443\u0440\u0430": 6896,
  "\u2581\u0421\u0432\u044f": 6897,
  "\u0445\u043e\u043c": 6898,
  "\u2581\u043c\u043e\u0434\u0435": 6899,
  "\u2581girl": 6900,
  "\u2581\u0421\u043b\u0443": 6901,
  "\u0441\u0442\u0432\u0435\u043d\u043d\u044b\u0445": 6902,
  "\u2581\u0412\u0430\u0441\u0438": 6903,
  "\u2581\u0432\u044b\u0448\u0435": 6904,
  "\u0449\u0435\u0433\u043e": 6905,
  "\u2581\u043c\u0438\u043a\u0440\u043e": 6906,
  "\u2581\u041e\u0411": 6907,
  "It": 6908,
  "\u2581\u0443\u0447\u0435\u0431": 6909,
  "\u2581American": 6910,
  "\u2581revis": 6911,
  "\u0432\u0435\u0434\u0435\u043d\u0438\u044f": 6912,
  "\u2581\u0441\u0430\u043c\u043e\u043c": 6913,
  "\u2581\u0421\u0430\u0440\u0430": 6914,
  "\u0442\u044b\u0445": 6915,
  "\u2581wor": 6916,
  "\u2581\u041d\u0430\u0446\u0438\u043e\u043d\u0430": 6917,
  "\u043a\u0440\u0443": 6918,
  "\u0441\u0442\u0430\u0442\u0438": 6919,
  "\u043d\u0441\u043a\u0430": 6920,
  "\u0411\u043e": 6921,
  "\u2581equ": 6922,
  "\u043b\u043e\u0436\u0435\u043d": 6923,
  "\u2581\u043f\u043e\u043c": 6924,
  "\u2581\u0440\u044f": 6925,
  "\u0442\u0430\u0443": 6926,
  "\u2581\u0434\u0443\u0440": 6927,
  "\u2581member": 6928,
  "\u043c\u0430\u0442\u044b": 6929,
  "\u2581\u043e\u043f\u0440\u0435\u0434\u0435\u043b\u044f": 6930,
  "\u0447\u0435\u0441\u043a\u043e\u0435": 6931,
  "\u2581\u0412\u043b\u0430\u0434\u0438": 6932,
  "\u25811987": 6933,
  "inning": 6934,
  "\u2581\u0417\u0435\u043c": 6935,
  "\u2581\u043f\u043e\u043b\u044c": 6936,
  "\u2581how": 6937,
  "\u2581\u043e\u0434\u043d\u0438\u043c": 6938,
  "\u0440\u043e\u0434\u0430": 6939,
  "\u2581\u0440\u0435\u0441": 6940,
  "\u2581\u043d\u043e\u044f\u0431\u0440\u044c": 6941,
  "\u2581\u0437\u0430\u0432\u0435\u0440": 6942,
  "\u043a\u043e\u043b": 6943,
  "\u2581\u043b\u0435\u0433": 6944,
  "\u2581\u043d\u0430\u0440\u0435": 6945,
  "\u2581\u0445\u0430\u0440\u0430\u043a\u0442\u0435\u0440": 6946,
  "\u0435\u0448\u044c": 6947,
  "\u0448\u043b\u044b": 6948,
  "\u2581\u043f\u0443\u0431\u043b\u0438": 6949,
  "\u2581Like": 6950,
  "\u0447\u0430\u0440": 6951,
  "\u0441\u043c\u0430": 6952,
  "site": 6953,
  "\u2581\u044d\u0442\u0443": 6954,
  "\u2581state": 6955,
  "\u0446\u0430\u0445": 6956,
  "\u2581\u0434\u0435\u044f": 6957,
  "\u0432\u0430\u0439\u0442\u0435": 6958,
  "\u2581\u043b\u0443\u0447": 6959,
  "\u2581\u0430\u0441\u0430": 6960,
  "\u2581\u0434\u0438\u0440\u0435\u043a": 6961,
  "\u0442\u0435\u043b\u044c\u043d\u043e\u0433\u043e": 6962,
  "\u2581\u041c\u043e\u0441\u043a\u0432\u0430": 6963,
  "\u2581Light": 6964,
  "\u2581\u0441\u043e\u0441\u0442\u0430": 6965,
  "\u043c\u044b\u0445": 6966,
  "\u0434\u0435\u043d\u043e": 6967,
  "\u2581Insp": 6968,
  "\u043c\u043d\u043e": 6969,
  "\u2581click": 6970,
  "\u0422\u043e": 6971,
  "\u0441\u0438\u043b\u0430": 6972,
  "\u2581\u0424\u043e\u0442\u043e": 6973,
  "\u2581\u043a\u0430\u043f\u0438\u0442\u0430": 6974,
  "\u2581\u0441\u043a\u0430\u0437\u0430\u043b": 6975,
  "\u2581\u0417\u0434\u0440\u0430": 6976,
  "inding": 6977,
  "\u2581\u0447\u043e": 6978,
  "\u2581convers": 6979,
  "-199": 6980,
  "\u2581Champions": 6981,
  "\u2581\u0432\u0430\u0448\u0435": 6982,
  "\u2581\u0432\u043d\u0438\u043c\u0430": 6983,
  "\u2581115": 6984,
  "\u0441\u043a\u043e\u0432": 6985,
  "\u0434\u0430\u0436": 6986,
  "\u2581\u0441\u043e\u0434\u0435\u0440\u0436\u0430": 6987,
  "0,": 6988,
  "\u2581\u0424\u043e": 6989,
  "\u0445\u043e\u0434\u0443": 6990,
  "ples": 6991,
  "\u2581\u043d\u0430\u0437": 6992,
  "\u2581Sci": 6993,
  "\u25811919": 6994,
  "\u0432\u0430\u0440\u044b": 6995,
  "\u0447\u0430\u0435\u0442\u0441\u044f": 6996,
  "\u2581Click": 6997,
  "\u2581\u0443\u043a\u0430\u0437\u0430": 6998,
  "\u0441\u0442\u043e\u043c": 6999,
  "\u043d\u044f\u0442\u044c": 7000,
  "\u2581calcul": 7001,
  "\u2581\u043f\u0440\u0438\u0441\u0443\u0442": 7002,
  ":\"": 7003,
  "\u2581\u041a\u0443\u0440": 7004,
  "\u2581body": 7005,
  "\u0442\u0430\u0442\u044c": 7006,
  "\u0442\u0435\u043b\u044c\u043d\u044b\u0439": 7007,
  "/.": 7008,
  "\u2581\u0444\u043e\u0440\u0443\u043c": 7009,
  "\u2581\u043a\u0430\u043a\u0438\u0435": 7010,
  "\u2581Run": 7011,
  "\u2581\u043c\u0435\u0447": 7012,
  "\u2581\u0430\u0434\u0440\u0435\u0441": 7013,
  "\u2581\u0432\u0430\u0440\u0438\u0430\u043d": 7014,
  "\u2581applic": 7015,
  "\u0431\u044b\u043b": 7016,
  "etic": 7017,
  "\u2581ear": 7018,
  "\u0432\u0430\u043d\u0438\u0435": 7019,
  "\u2581VIII": 7020,
  "\u2581\u0438\u043d\u0444\u043e\u0440\u043c\u0430\u0446\u0438\u044e": 7021,
  "\u2581\u043c\u043e\u0433\u043b\u0438": 7022,
  "\u2581\u0444\u0435\u0432\u0440\u0430\u043b\u044c": 7023,
  "\u2581\u0428\u0435": 7024,
  "2).": 7025,
  "anning": 7026,
  "\u0433\u0440\u0430\u043c": 7027,
  "\u2581investig": 7028,
  "\u2581volume": 7029,
  "work": 7030,
  "\u0449\u0435\u0439": 7031,
  "\u25814.0": 7032,
  "\u2581\u0440\u0435\u043c\u043e\u043d": 7033,
  "table": 7034,
  "\u0437\u0438\u0442\u0435": 7035,
  "\u2581photos": 7036,
  "\u0434\u0435\u043b\u0435": 7037,
  "\u2581\u0422\u0430\u043a\u0436\u0435": 7038,
  "\u2581Victoria": 7039,
  "\u043b\u0430\u043d\u0434": 7040,
  "\u258114-": 7041,
  "\u2581\u043e\u0441\u0443": 7042,
  "\u2581\u0421\u043f\u0430": 7043,
  "\u2581\u0442\u0435\u043c\u0443": 7044,
  "\u2581\u0415\u0421": 7045,
  "\u0441\u0441\u0438\u0438": 7046,
  "\u2581similar": 7047,
  "cement": 7048,
  "\u2581find": 7049,
  "\u2581business": 7050,
  "\u2581unit": 7051,
  "\u0430\u043b\u044c\u043d\u044b\u0445": 7052,
  "\u2581\u0451": 7053,
  "\u2581complex": 7054,
  "\u043a\u043e\u043b\u0438": 7055,
  "\u2581\u0434\u0430\u043d\u043d\u044b\u0445": 7056,
  "\u2581situation": 7057,
  "\u2581meas": 7058,
  "\u2581code": 7059,
  "\u25811,2": 7060,
  "\u0431\u0440\u0435": 7061,
  "\u0434\u0435\u043d\u0438\u0435": 7062,
  "umes": 7063,
  "\u2581\u0420\u043e\u0441\u0441\u0438\u044f": 7064,
  "istic": 7065,
  "\u043a\u0442\u043e\u0440\u0430": 7066,
  "\u043b\u0435\u0441": 7067,
  "\u2581reading": 7068,
  "\u0445\u043e\u043d": 7069,
  "\u2581\u0441\u0442\u0430\u043d\u0434\u0430\u0440\u0442": 7070,
  "\u2581\u0413\u0435\u0440\u043c\u0430\u043d\u0438\u044f": 7071,
  "\u043c\u0435\u043d\u044f": 7072,
  "\u2581\u0443\u043a\u0430": 7073,
  "\u2581\u0411\u043e\u043b\u044c": 7074,
  "\u0412\u0435": 7075,
  "\u2581\u0421\u0432\u0435\u0442": 7076,
  "\u2581Water": 7077,
  "\u2581\u0435\u0451": 7078,
  "\u2581\u0432\u0435\u043a\u0430": 7079,
  "\u2581\u0441\u0442\u0440\u0430\u0442\u0435": 7080,
  "\u2581\u043f\u0440\u043e\u0435\u043a\u0442\u0430": 7081,
  "\u2581\u043f\u0440\u043e\u0435\u043a\u0442\u0438": 7082,
  "\u2581\u0422\u0410": 7083,
  "\u0442\u0435\u043c": 7084,
  "\u0447\u0438\u0432": 7085,
  "\u2581\u0411\u043b\u0430\u0433\u043e": 7086,
  "1000": 7087,
  "\u2581\u0443\u0432\u0435\u043b\u0438": 7088,
  "\u043b\u044c\u043d\u043e\u043c\u0443": 7089,
  "05": 7090,
  "-24": 7091,
  "\u2581\u043e\u043a\u0442\u044f\u0431\u0440\u044c": 7092,
  "\u2581\u0432\u043e\u0437\u0434\u0443": 7093,
  "ored": 7094,
  "\u2581success": 7095,
  "ply": 7096,
  "We": 7097,
  "FS": 7098,
  "\u2581\u0421\u043a\u043e": 7099,
  "\u2581\u0440\u0430\u0437\u043c\u0435\u0440": 7100,
  "\u2581\u043f\u0443\u0431\u043b\u0438\u043a\u0430": 7101,
  "\u2581hospital": 7102,
  "\u2581\u0437\u0430\u0431\u043e": 7103,
  "\u2581\u0446\u0435\u043b\u043e": 7104,
  "\"?": 7105,
  "-2016": 7106,
  "\u2581\u041e\u0431\u0440\u0430": 7107,
  "\u2581\u0441\u0435\u043d\u0442\u044f\u0431\u0440\u044c": 7108,
  "\u2581\u043b\u0438\u0442\u0435\u0440\u0430": 7109,
  "\u2581\u043e\u0441\u043e\u0431\u0438": 7110,
  "oney": 7111,
  "\u2581First": 7112,
  "\u2581Mayor": 7113,
  "\u2581project": 7114,
  "\u2581\u0443\u043d\u0438\u043a\u0430": 7115,
  "\u0432\u0438\u043d\u0438": 7116,
  "\u0434\u0438\u043b\u0438": 7117,
  "here": 7118,
  "\u043e\u0431\u0449\u0435": 7119,
  "\u2581sexual": 7120,
  "\u2581\u043c\u043e\u0434\u0435\u043b\u0438": 7121,
  "\u2581\u0430\u043c\u0430": 7122,
  "\u2581\u043f\u043e\u0441\u0442\u043e": 7123,
  "\u0410\u041d\u0418": 7124,
  "\u0412\u043e": 7125,
  "\u258113-": 7126,
  "\u041a\u0423": 7127,
  "\u2581\u043e\u0437": 7128,
  "uty": 7129,
  "\u0440\u0430\u0432": 7130,
  "\u0435\u043c\u044b\u0445": 7131,
  "\u2581\u043f\u043e\u043f\u0430": 7132,
  "\u2581\u043f\u0440\u043e\u0434\u043e\u043b": 7133,
  "\u2581\u0431\u043e\u043b\u043e": 7134,
  "\u2581\u043f\u0440\u043e\u0438\u0437\u0432\u043e\u0434\u0441\u0442\u0432\u043e": 7135,
  "\u0442\u0438\u0432\u0438": 7136,
  "\u2581\u043f\u043e\u043a\u0443\u043f\u0430": 7137,
  "\u2581fabric": 7138,
  "aking": 7139,
  "\u2581pension": 7140,
  "\u2581\u0431\u0430\u0442": 7141,
  "ather": 7142,
  "\u2581\u0433\u0435\u043e": 7143,
  "\u043d\u0443\u0442": 7144,
  "\u2581\u043f\u0440\u043e\u0432\u0435\u0440": 7145,
  "\u0434\u0435\u0442": 7146,
  "\u0437\u044b\u0432\u0430": 7147,
  "\u25811985": 7148,
  "\u2581\u043a\u0430\u043d\u0434\u0438\u0434\u0430": 7149,
  "\u2581nation": 7150,
  "\u043c\u0430\u0442\u043e": 7151,
  "\u0447\u043d\u0443\u044e": 7152,
  "\u0440\u043e\u0432\u043a\u0430": 7153,
  "\u0442\u0430\u0440\u0438": 7154,
  "\u0441\u0442\u0440\u0443\u043a": 7155,
  "\u2581\u0418\u0440": 7156,
  "\u2581\u0445\u0430\u043c": 7157,
  "\u2581\u0438\u0433": 7158,
  "\u2581\u043c\u0435\u0442\u0430\u043b": 7159,
  "\u2581\u0431\u0435\u0441\u043f\u043b\u0430\u0442\u043d\u043e": 7160,
  "\u2581first": 7161,
  "\u043b\u044c\u044f": 7162,
  "\u2581Back": 7163,
  "\u2581\u043c\u043e\u0440\u0435": 7164,
  "\u0443\u0441": 7165,
  "\u2581song": 7166,
  "\u2581Wh": 7167,
  "\u2581\u041a\u0430\u0440\u0430": 7168,
  "\u2581\u0434\u0440\u0443\u0433\u0438\u043c": 7169,
  "-21": 7170,
  "\u2581\u043c\u0430\u043b\u0430": 7171,
  "\u2581((": 7172,
  "\u2581\u0441\u0443\u043f\u0435\u0440": 7173,
  "\u2581Road": 7174,
  "\u2581\u0421\u043e\u0432\u0435\u0442": 7175,
  "\u0440\u0430\u0437\u0443\u043c\u0435": 7176,
  "isation": 7177,
  "\u2581\u0445\u0435": 7178,
  "\u2581\u0437\u0430\u0439\u043c\u0430": 7179,
  "\u2581\u0445\u0430\u0440\u0430\u043a": 7180,
  "\u2581\u0441\u043e\u0442\u0440\u0443\u0434\u043d\u0438": 7181,
  "istent": 7182,
  "\u2581\u044d\u043b\u0435": 7183,
  "\u2581\u043f\u0430\u0440\u0442\u0438\u044f": 7184,
  "\u2581\u0443\u0447": 7185,
  "\u0441\u0435\u043a": 7186,
  "\u2581\u0434\u0430\u0432": 7187,
  "\u2581pup": 7188,
  "\u0432\u043d\u043e\u043c": 7189,
  "\u2581\u043f\u0440\u0438\u0447\u0438\u043d\u0430": 7190,
  "\u0445\u043e\u0434\u044f\u0442": 7191,
  "\u043b\u043e\u0436\u0435\u043d\u0438\u0435": 7192,
  "\u0440\u0438\u0441\u0442\u0430": 7193,
  "\u2581\u0434\u0435\u0439\u0441\u0442\u0432\u0438\u044f": 7194,
  "\u2581Journal": 7195,
  "\u0441\u0442\u044c\u044e": 7196,
  "\u2581\u043e\u0440\u043e": 7197,
  "\u0441\u0442\u043d\u043e": 7198,
  "\u2581\u0438\u0441\u043f\u043e\u043b\u044c\u0437\u043e\u0432\u0430": 7199,
  "\u0448\u0435\u0435": 7200,
  "\u2581Now": 7201,
  "\u0441\u043e\u0440": 7202,
  "\u2581\u0410\u043b\u0435\u043a": 7203,
  "\u0442\u0443\u0440\u0435": 7204,
  "\u2581clients": 7205,
  "\u2581introduc": 7206,
  "\u2581\u043b\u044e\u0431\u044b": 7207,
  "\u0437\u0430\u0446\u0438\u0438": 7208,
  "\u2581\u043a\u043e\u043c\u043f\u0430": 7209,
  "eries": 7210,
  "\u0433\u043e\u043b\u0435": 7211,
  "\u2581XII": 7212,
  "\u0447\u0435\u043d\u044b": 7213,
  "\u2581\u0411\u043e\u0433\u0430": 7214,
  "\u2581\u0434\u0435\u043a\u0430\u0431\u0440\u044c": 7215,
  "\u0440\u044e": 7216,
  "\u2581\u0410\u043d\u0433": 7217,
  "\u2581\u043c\u0438\u043b\u043b\u0438\u043e\u043d": 7218,
  "\u2581\u043d\u0430\u043c\u0438": 7219,
  "\u2581\u043f\u0440\u043e\u0431\u043b\u0435\u043c\u044b": 7220,
  "\u25814000": 7221,
  "\u258117-": 7222,
  "\u2581\u0417\u0435": 7223,
  "\u2581Ash": 7224,
  "\u2581\u0413\u043e\u0441\u043f\u043e": 7225,
  "\u2581\u043a\u0430\u0440\u0442\u0438": 7226,
  "\u2581\u0433\u0440\u043e\u043c\u0430\u0434": 7227,
  "\u2581\u043a\u0440\u0438\u0442\u0438": 7228,
  "\u2581\u0437\u0434\u043e": 7229,
  "\u2581panel": 7230,
  "\u2581\u043f\u043e\u0440\u0442\u0430": 7231,
  "\u043f\u0435\u0439": 7232,
  "\u0447\u0435\u0442\u0435": 7233,
  "\u0446\u0435\u043c": 7234,
  "\u2581\u0435\u0432\u0440\u043e\u043f\u0435\u0439": 7235,
  "\u2581\u0438\u043d\u0442\u0435": 7236,
  "\u2581\u043a\u0432\u0430\u0440\u0442\u0438": 7237,
  "\u2581serve": 7238,
  "\u2581\u0440\u0435\u0433\u0443": 7239,
  "\u2581\u0440\u0435\u0436\u0438\u043c": 7240,
  "ouch": 7241,
  "\u0437\u0430\u0439": 7242,
  "\u2581\u043c\u043d\u043e\u0433\u0438\u0435": 7243,
  "\u043d\u0438\u043a\u0430\u043c": 7244,
  "\u0442\u043d\u043e\u0433\u043e": 7245,
  "\u2581Visa": 7246,
  "10,": 7247,
  "\u2581\u0437\u043b\u0430": 7248,
  "\u0411\u0418": 7249,
  "ession": 7250,
  "\u0432\u0442\u043e": 7251,
  "\u2581\u0437\u0430\u043a\u0443": 7252,
  "\u2581\u0426\u0435\u043d\u0442\u0440\u0430": 7253,
  "\u2581good": 7254,
  "\u2581depend": 7255,
  "\u2581\u043d\u0430\u0445\u043e\u0434\u0438\u0442\u0441\u044f": 7256,
  "\u2581\u044f\u0440": 7257,
  "\u2581VR": 7258,
  "\u2581\u0430\u043a\u0442\u0443": 7259,
  "\u2581combin": 7260,
  "ernet": 7261,
  "\u2581style": 7262,
  "\u2581\u0421\u043b\u0430": 7263,
  "\u2581\u043a\u0443\u0440\u0441": 7264,
  "\u2581\u0443\u043a\u0440\u0430": 7265,
  "\u0434\u0430\u043b\u0438": 7266,
  "\u2581\u043f\u0440\u043e\u0433\u043d\u043e": 7267,
  "\u0432\u0430\u043d\u044c": 7268,
  "ervat": 7269,
  "\u2581million": 7270,
  "\u25811979": 7271,
  "\u2581Network": 7272,
  "\u2581\u0437\u0430\u043a\u043e\u043d\u0430": 7273,
  "\u2581\u0411\u0430\u0448": 7274,
  "\u0441\u0442\u0432\u0443\u044e\u0442": 7275,
  "view": 7276,
  "\u2581\u0441\u043e\u043e\u0442\u0432\u0435\u0442\u0441\u0442\u0432\u0438\u0438": 7277,
  "\u2581\u0434\u0438\u043f\u043b\u043e": 7278,
  "\u0427\u0418": 7279,
  "\u0448\u0435\u043a": 7280,
  "\u2581\u043c\u0443\u0437\u044b\u043a\u0430": 7281,
  "\u2581\u0430\u043f\u0440\u0435\u043b\u044c": 7282,
  "\u0440\u043e\u0432\u043e": 7283,
  "\u2581\u041a\u043e\u0433\u0434\u0430": 7284,
  "\u2581\u0441\u043a\u0438": 7285,
  "\u2581tea": 7286,
  "\u2581\u043f\u043e\u0447\u0430": 7287,
  "\u0441\u0430\u0442\u0430": 7288,
  "\u043b\u0435\u043d\u043d\u044b\u0445": 7289,
  "\u258160-": 7290,
  "\u2581\u043e\u0431\u0435\u0441\u043f\u0435": 7291,
  "\u258125%": 7292,
  "folk": 7293,
  "\u2581\u043f\u0440\u0438\u0441\u0443": 7294,
  "\u2581ava": 7295,
  "\u0448\u0438\u043c\u0438": 7296,
  "\u2581soft": 7297,
  "\u2581IC": 7298,
  "icks": 7299,
  "edom": 7300,
  "\u0432\u0430\u0440\u0438": 7301,
  "\u043d\u0430\u0432": 7302,
[...]
